<unk>	0
<s>	0
</s>	0
<url>	0
<email>	0
<file>	0
<money>	0
<pad>	0
▁t	-0
▁a	-1
in	-2
re	-3
on	-4
▁th	-5
er	-6
▁s	-7
▁c	-8
or	-9
ou	-10
▁the	-11
▁p	-12
▁f	-13
▁w	-14
en	-15
at	-16
▁i	-17
▁m	-18
es	-19
▁b	-20
an	-21
▁to	-22
▁d	-23
ed	-24
▁o	-25
▁an	-26
ing	-27
▁h	-28
▁in	-29
ar	-30
al	-31
it	-32
▁y	-33
is	-34
il	-35
▁n	-36
▁re	-37
ion	-38
▁you	-39
ic	-40
om	-41
le	-42
as	-43
▁e	-44
▁and	-45
▁of	-46
ent	-47
▁l	-48
▁g	-49
ve	-50
et	-51
▁for	-52
us	-53
ct	-54
ro	-55
ay	-56
ge	-57
el	-58
▁on	-59
ot	-60
ma	-61
ch	-62
ow	-63
▁is	-64
ation	-65
ce	-66
ol	-67
ri	-68
▁be	-69
▁con	-70
st	-71
ly	-72
▁we	-73
▁at	-74
▁or	-75
un	-76
▁st	-77
▁this	-78
ad	-79
ill	-80
ers	-81
id	-82
▁your	-83
ur	-84
ut	-85
ment	-86
est	-87
▁pro	-88
▁com	-89
▁j	-90
▁v	-91
ith	-92
▁en	-93
▁ne	-94
ess	-95
▁that	-96
▁al	-97
ate	-98
▁wh	-99
▁as	-100
am	-101
▁de	-102
ave	-103
▁with	-104
▁it	-105
▁not	-106
th	-107
▁fr	-108
res	-109
ir	-110
▁are	-111
im	-112
ere	-113
ta	-114
▁ch	-115
ase	-116
mail	-117
se	-118
our	-119
▁su	-120
ig	-121
▁k	-122
▁me	-123
▁from	-124
ter	-125
▁r	-126
▁will	-127
▁se	-128
qu	-129
▁email	-130
ul	-131
ver	-132
if	-133
▁ex	-134
▁tr	-135
end	-136
▁have	-137
ck	-138
op	-139
▁by	-140
mage	-141
▁if	-142
ts	-143
ard	-144
lease	-145
▁sh	-146
ive	-147
▁image	-148
out	-149
ld	-150
pp	-151
age	-152
ity	-153
▁please	-154
▁ad	-155
oo	-156
▁us	-157
mb	-158
▁un	-159
iv	-160
ist	-161
ice	-162
▁le	-163
▁cl	-164
day	-165
ab	-166
com	-167
ust	-168
ore	-169
ions	-170
▁any	-171
ke	-172
up	-173
ail	-174
▁mar	-175
for	-176
ant	-177
▁new	-178
ick	-179
▁comp	-180
ould	-181
ron	-182
os	-183
▁all	-184
oun	-185
all	-186
ell	-187
▁do	-188
ial	-189
art	-190
▁sp	-191
ect	-192
and	-193
ip	-194
ine	-195
ort	-196
ie	-197
▁am	-198
ree	-199
▁our	-200
ies	-201
▁res	-202
gh	-203
ks	-204
ra	-205
one	-206
gy	-207
su	-208
▁can	-209
▁up	-210
▁<	-211
▁off	-212
ast	-213
form	-214
ire	-215
▁>	-216
▁pl	-217
▁ab	-218
▁int	-219
▁rep	-220
bs	-221
der	-222
ud	-223
erv	-224
▁inc	-225
▁rece	-226
▁wor	-227
ans	-228
▁te	-229
▁than	-230
▁he	-231
mber	-232
▁so	-233
mp	-234
▁mark	-235
▁pr	-236
cc	-237
ia	-238
▁ag	-239
▁qu	-240
igh	-241
▁no	-242
▁inform	-243
ergy	-244
ap	-245
lo	-246
ress	-247
▁add	-248
▁fa	-249
ments	-250
▁enron	-251
rib	-252
▁mess	-253
▁reg	-254
▁dis	-255
▁information	-256
▁here	-257
▁tim	-258
ched	-259
ure	-260
▁energy	-261
▁may	-262
ich	-263
able	-264
ff	-265
▁ma	-266
▁co	-267
te	-268
▁fin	-269
▁market	-270
▁conf	-271
ite	-272
▁message	-273
▁go	-274
▁get	-275
ack	-276
▁exp	-277
▁conta	-278
ile	-279
▁was	-280
▁ind	-281
▁click	-282
ary	-283
▁out	-284
ther	-285
em	-286
ated	-287
ec	-288
▁cont	-289
▁day	-290
ib	-291
▁comm	-292
▁more	-293
ome	-294
▁fe	-295
▁lo	-296
ations	-297
▁op	-298
any	-299
are	-300
▁app	-301
▁serv	-302
now	-303
▁part	-304
ac	-305
▁inter	-306
▁atta	-307
uct	-308
ings	-309
oll	-310
▁would	-311
bsc	-312
▁my	-313
▁acc	-314
▁call	-315
ange	-316
▁has	-317
ag	-318
so	-319
king	-320
▁time	-321
▁free	-322
ance	-323
um	-324
▁gas	-325
nt	-326
rou	-327
lect	-328
▁about	-329
ont	-330
▁jo	-331
▁wee	-332
iz	-333
▁po	-334
av	-335
orn	-336
▁know	-337
▁mo	-338
ry	-339
▁but	-340
▁disc	-341
▁ta	-342
▁li	-343
ue	-344
iew	-345
▁its	-346
ices	-347
▁ro	-348
▁ar	-349
▁pre	-350
ight	-351
ear	-352
▁mon	-353
bscrib	-354
ower	-355
▁one	-356
ame	-357
ide	-358
▁per	-359
▁send	-360
▁pri	-361
ition	-362
ain	-363
▁trans	-364
her	-365
ds	-366
▁ph	-367
ade	-368
▁other	-369
▁see	-370
ee	-371
▁let	-372
line	-373
▁there	-374
ates	-375
▁bus	-376
▁cop	-377
ass	-378
ward	-379
iss	-380
▁requ	-381
▁receiv	-382
▁rec	-383
▁now	-384
▁week	-385
ount	-386
▁meet	-387
▁cal	-388
▁how	-389
▁need	-390
▁their	-391
ght	-392
eren	-393
ally	-394
▁attached	-395
ink	-396
▁company	-397
▁inv	-398
red	-399
▁pm	-400
▁rev	-401
ex	-402
ign	-403
▁man	-404
▁power	-405
lud	-406
ub	-407
very	-408
▁what	-409
anc	-410
▁av	-411
ollow	-412
iness	-413
ll	-414
▁follow	-415
▁address	-416
▁news	-417
▁list	-418
irect	-419
▁prov	-420
ish	-421
▁who	-422
▁fir	-423
▁hou	-424
ach	-425
ident	-426
▁gre	-427
pt	-428
▁quest	-429
▁contact	-430
ject	-431
▁they	-432
▁im	-433
▁some	-434
▁like	-435
▁ev	-436
▁resp	-437
▁bu	-438
▁includ	-439
ang	-440
ook	-441
▁only	-442
min	-443
▁just	-444
▁hel	-445
ft	-446
▁bo	-447
ose	-448
▁business	-449
▁ri	-450
▁thanks	-451
gr	-452
▁direct	-453
▁cor	-454
▁today	-455
ood	-456
▁bel	-457
▁also	-458
▁year	-459
bscribe	-460
▁use	-461
▁copy	-462
int	-463
▁ent	-464
ber	-465
▁trad	-466
row	-467
▁fri	-468
▁been	-469
▁which	-470
ous	-471
▁del	-472
xt	-473
▁sub	-474
ons	-475
ient	-476
ound	-477
▁these	-478
ric	-479
▁should	-480
▁received	-481
duct	-482
ston	-483
▁rel	-484
▁over	-485
▁when	-486
▁order	-487
ors	-488
▁spec	-489
als	-490
▁pres	-491
▁mail	-492
▁well	-493
▁receive	-494
▁forward	-495
▁service	-496
mo	-497
ustom	-498
▁act	-499
ys	-500
▁web	-501
▁questions	-502
uss	-503
▁report	-504
ms	-505
yst	-506
ific	-507
ited	-508
▁custom	-509
lic	-510
ility	-511
ities	-512
ah	-513
▁agree	-514
▁avail	-515
ely	-516
▁imp	-517
co	-518
erence	-519
ord	-520
▁dec	-521
own	-522
▁fun	-523
▁fax	-524
▁help	-525
ult	-526
▁emp	-527
▁mat	-528
loy	-529
ak	-530
▁meeting	-531
ise	-532
▁ed	-533
▁fut	-534
▁offer	-535
▁unsu	-536
▁car	-537
▁elect	-538
▁vis	-539
▁gu	-540
ures	-541
▁were	-542
act	-543
erson	-544
aw	-545
▁want	-546
▁af	-547
▁id	-548
▁regard	-549
ind	-550
ens	-551
ond	-552
▁er	-553
▁calif	-554
ne	-555
▁issu	-556
ank	-557
▁priv	-558
itt	-559
▁char	-560
mbers	-561
▁adv	-562
▁nu	-563
▁employ	-564
▁houston	-565
▁sec	-566
ong	-567
▁cons	-568
▁californ	-569
▁online	-570
net	-571
ory	-572
▁under	-573
pl	-574
▁ny	-575
▁available	-576
▁discuss	-577
roup	-578
▁unsubscribe	-579
ru	-580
ci	-581
▁last	-582
▁contain	-583
▁price	-584
▁sent	-585
▁col	-586
ission	-587
let	-588
ract	-589
▁set	-590
▁bet	-591
▁group	-592
ert	-593
▁date	-594
▁fl	-595
▁following	-596
ph	-597
▁california	-598
ended	-599
ical	-600
ence	-601
▁make	-602
▁thank	-603
▁pur	-604
▁che	-605
ince	-606
▁change	-607
io	-608
▁visit	-609
▁supp	-610
ace	-611
ock	-612
oney	-613
▁sal	-614
▁into	-615
▁tw	-616
▁ret	-617
▁work	-618
▁find	-619
▁first	-620
aily	-621
atur	-622
▁prop	-623
oc	-624
▁upd	-625
urn	-626
ls	-627
▁att	-628
▁bas	-629
▁cur	-630
▁request	-631
▁pos	-632
▁val	-633
ystem	-634
▁det	-635
▁great	-636
arn	-637
old	-638
▁next	-639
we	-640
▁nor	-641
▁pay	-642
▁product	-643
▁bl	-644
▁bill	-645
ces	-646
erc	-647
▁ver	-648
med	-649
▁daily	-650
pr	-651
eric	-652
ual	-653
▁best	-654
▁sc	-655
▁system	-656
▁cap	-657
▁ass	-658
▁take	-659
▁ref	-660
▁inst	-661
ork	-662
▁person	-663
change	-664
▁corp	-665
ating	-666
eded	-667
▁form	-668
▁partic	-669
ool	-670
▁them	-671
lete	-672
▁back	-673
ered	-674
▁every	-675
▁buy	-676
▁gen	-677
erest	-678
▁et	-679
▁prof	-680
▁plan	-681
▁hot	-682
rent	-683
▁special	-684
esday	-685
▁interest	-686
▁dist	-687
▁des	-688
ays	-689
ble	-690
▁real	-691
▁good	-692
▁state	-693
vel	-694
hing	-695
▁those	-696
▁jan	-697
▁invest	-698
▁members	-699
rough	-700
▁below	-701
▁tech	-702
▁americ	-703
▁agreement	-704
▁mill	-705
▁made	-706
▁sched	-707
▁appro	-708
ible	-709
▁services	-710
man	-711
▁review	-712
▁after	-713
▁doc	-714
▁oct	-715
▁dat	-716
▁through	-717
ied	-718
les	-719
fore	-720
▁read	-721
▁pe	-722
read	-723
▁ha	-724
▁commun	-725
▁chang	-726
▁ste	-727
idential	-728
▁dont	-729
▁ter	-730
ution	-731
▁sm	-732
cl	-733
use	-734
▁check	-735
▁br	-736
ees	-737
▁down	-738
▁stock	-739
ef	-740
▁conference	-741
ents	-742
arch	-743
▁ac	-744
▁cr	-745
▁pub	-746
▁number	-747
▁lat	-748
uring	-749
▁notice	-750
▁aut	-751
▁phone	-752
▁month	-753
▁intended	-754
▁el	-755
▁could	-756
▁hop	-757
ca	-758
▁sign	-759
▁sell	-760
▁reserv	-761
▁air	-762
▁financ	-763
olo	-764
▁gener	-765
▁proc	-766
ational	-767
▁particip	-768
iff	-769
▁opt	-770
▁since	-771
▁cred	-772
ative	-773
▁sa	-774
▁dep	-775
gram	-776
▁wr	-777
▁his	-778
▁ca	-779
▁confidential	-780
▁site	-781
wn	-782
▁dear	-783
▁indust	-784
▁pol	-785
▁current	-786
▁provid	-787
oth	-788
▁docu	-789
▁name	-790
▁fw	-791
▁such	-792
ify	-793
▁techn	-794
▁account	-795
▁two	-796
▁again	-797
▁min	-798
▁program	-799
▁most	-800
▁net	-801
ives	-802
ton	-803
▁access	-804
tain	-805
its	-806
▁gr	-807
▁hour	-808
▁home	-809
▁2	-810
▁cent	-811
▁trave	-812
▁contract	-813
▁had	-814
▁link	-815
ern	-816
cy	-817
to	-818
▁note	-819
▁file	-820
▁reply	-821
▁dra	-822
pe	-823
eep	-824
uc	-825
▁confir	-826
ason	-827
gest	-828
▁cle	-829
ruct	-830
▁contin	-831
▁comments	-832
hn	-833
▁customer	-834
▁view	-835
▁subject	-836
ved	-837
orts	-838
▁credit	-839
ines	-840
▁deli	-841
▁employees	-842
▁financial	-843
▁high	-844
▁nove	-845
ey	-846
▁look	-847
con	-848
▁wed	-849
▁pass	-850
▁ut	-851
▁post	-852
▁leg	-853
▁ann	-854
▁addition	-855
ian	-856
hib	-857
▁tex	-858
▁november	-859
▁sch	-860
▁detail	-861
▁internet	-862
▁electric	-863
▁before	-864
▁play	-865
de	-866
▁very	-867
mm	-868
atural	-869
ately	-870
▁eas	-871
ics	-872
▁bro	-873
▁communic	-874
▁think	-875
▁manage	-876
▁did	-877
ful	-878
ough	-879
hip	-880
olid	-881
▁each	-882
ather	-883
▁data	-884
ges	-885
▁par	-886
▁long	-887
▁bank	-888
▁trading	-889
▁win	-890
ting	-891
▁days	-892
get	-893
▁mu	-894
▁friday	-895
▁world	-896
mission	-897
▁mich	-898
▁then	-899
▁start	-900
ipient	-901
▁require	-902
ull	-903
▁john	-904
▁fil	-905
air	-906
▁top	-907
▁going	-908
▁does	-909
ule	-910
▁remo	-911
▁hope	-912
▁exec	-913
ober	-914
gin	-915
ental	-916
▁purch	-917
▁line	-918
▁tal	-919
▁distrib	-920
▁own	-921
▁keep	-922
▁october	-923
velop	-924
▁ins	-925
ash	-926
▁natural	-927
▁je	-928
▁gif	-929
▁sw	-930
▁x	-931
ious	-932
▁sim	-933
ning	-934
▁right	-935
▁office	-936
atch	-937
▁inf	-938
▁way	-939
ged	-940
acy	-941
ime	-942
▁beca	-943
▁because	-944
▁oper	-945
▁pa	-946
▁don	-947
come	-948
▁ris	-949
▁during	-950
▁she	-951
▁provide	-952
▁open	-953
amp	-954
ley	-955
▁prices	-956
▁ll	-957
▁while	-958
sum	-959
▁letter	-960
▁ext	-961
▁texas	-962
▁futures	-963
ner	-964
ove	-965
ript	-966
▁much	-967
▁develop	-968
▁attach	-969
▁jun	-970
▁anal	-971
▁opp	-972
ott	-973
▁future	-974
▁member	-975
urs	-976
▁recipient	-977
▁es	-978
ision	-979
▁issues	-980
ets	-981
▁even	-982
▁wish	-983
ised	-984
▁loc	-985
▁cour	-986
▁give	-987
▁changes	-988
▁la	-989
▁tri	-990
▁summ	-991
iting	-992
▁dece	-993
ified	-994
▁ear	-995
▁management	-996
▁many	-997
▁sep	-998
▁polic	-999
▁west	-1000
ath	-1001
▁diff	-1002
▁still	-1003
▁contained	-1004
▁regarding	-1005
ants	-1006
▁deal	-1007
▁est	-1008
▁ou	-1009
▁eff	-1010
▁regul	-1011
medi	-1012
▁december	-1013
▁chr	-1014
ote	-1015
▁york	-1016
▁stre	-1017
▁project	-1018
ars	-1019
ipp	-1020
sel	-1021
▁vol	-1022
ror	-1023
ize	-1024
▁page	-1025
▁her	-1026
▁regist	-1027
▁loo	-1028
▁repres	-1029
hor	-1030
▁draft	-1031
▁law	-1032
▁travel	-1033
▁process	-1034
▁tom	-1035
ily	-1036
▁including	-1037
▁peop	-1038
▁ben	-1039
ahoo	-1040
▁update	-1041
▁money	-1042
▁above	-1043
▁monday	-1044
igin	-1045
▁commit	-1046
▁immedi	-1047
he	-1048
be	-1049
ins	-1050
▁holid	-1051
▁end	-1052
▁industry	-1053
▁cost	-1054
▁herein	-1055
▁z	-1056
li	-1057
▁stat	-1058
▁via	-1059
▁markets	-1060
▁conc	-1061
▁where	-1062
▁friend	-1063
▁origin	-1064
cont	-1065
ep	-1066
▁ur	-1067
▁north	-1068
▁apr	-1069
▁execut	-1070
ator	-1071
▁propos	-1072
▁privile	-1073
▁met	-1074
▁dav	-1075
▁lar	-1076
▁red	-1077
▁rese	-1078
▁yahoo	-1079
▁feb	-1080
▁details	-1081
right	-1082
▁happ	-1083
▁dem	-1084
▁return	-1085
▁aff	-1086
▁policy	-1087
▁express	-1088
▁aw	-1089
▁sure	-1090
iam	-1091
me	-1092
▁delivery	-1093
lement	-1094
▁people	-1095
▁compan	-1096
rup	-1097
▁ce	-1098
▁tu	-1099
▁ask	-1100
▁regards	-1101
ps	-1102
▁corpor	-1103
▁risk	-1104
▁manag	-1105
▁sect	-1106
▁vers	-1107
▁port	-1108
▁lim	-1109
ix	-1110
▁president	-1111
rupt	-1112
▁sen	-1113
▁schedul	-1114
maz	-1115
da	-1116
▁complete	-1117
▁products	-1118
▁ferc	-1119
ized	-1120
▁u	-1121
gan	-1122
ween	-1123
xls	-1124
▁support	-1125
▁asso	-1126
od	-1127
▁full	-1128
comm	-1129
▁bre	-1130
▁being	-1131
▁ken	-1132
▁companies	-1133
▁million	-1134
ames	-1135
▁represent	-1136
▁thurs	-1137
lish	-1138
▁research	-1139
aring	-1140
▁between	-1141
ild	-1142
▁associ	-1143
▁brow	-1144
yn	-1145
▁class	-1146
▁must	-1147
▁years	-1148
▁sol	-1149
ortun	-1150
▁sou	-1151
▁public	-1152
▁forwarded	-1153
▁lead	-1154
▁stud	-1155
▁technolo	-1156
ention	-1157
▁opportun	-1158
▁bar	-1159
▁error	-1160
▁exc	-1161
▁rich	-1162
ective	-1163
tee	-1164
ared	-1165
▁too	-1166
▁team	-1167
▁rest	-1168
exchange	-1169
▁item	-1170
▁ob	-1171
▁gift	-1172
▁low	-1173
▁include	-1174
▁soon	-1175
▁present	-1176
▁spe	-1177
▁past	-1178
▁mod	-1179
fer	-1180
tal	-1181
ience	-1182
▁confirm	-1183
▁san	-1184
▁fur	-1185
▁card	-1186
▁belie	-1187
iel	-1188
▁thursday	-1189
▁working	-1190
▁lin	-1191
▁try	-1192
ss	-1193
▁show	-1194
ug	-1195
contin	-1196
▁sur	-1197
▁exper	-1198
▁tax	-1199
▁jeff	-1200
ute	-1201
ivid	-1202
▁enter	-1203
▁save	-1204
▁consum	-1205
▁sun	-1206
uary	-1207
▁offers	-1208
▁transmission	-1209
ration	-1210
▁tick	-1211
▁ser	-1212
▁tele	-1213
▁spread	-1214
ands	-1215
▁poss	-1216
▁board	-1217
▁<<	-1218
▁righ	-1219
less	-1220
▁place	-1221
▁bri	-1222
▁further	-1223
▁him	-1224
▁january	-1225
ources	-1226
▁said	-1227
oy	-1228
nesday	-1229
▁additional	-1230
▁mr	-1231
▁respons	-1232
led	-1233
ription	-1234
▁city	-1235
▁june	-1236
▁sales	-1237
▁transact	-1238
▁shop	-1239
▁wednesday	-1240
ability	-1241
▁prohib	-1242
▁wa	-1243
▁tuesday	-1244
▁applic	-1245
ional	-1246
▁fore	-1247
▁rights	-1248
▁unt	-1249
▁webs	-1250
▁center	-1251
▁consid	-1252
ivers	-1253
▁def	-1254
▁tx	-1255
cept	-1256
▁nom	-1257
▁immediately	-1258
▁proble	-1259
iso	-1260
▁april	-1261
▁original	-1262
go	-1263
ger	-1264
>>	-1265
ict	-1266
▁both	-1267
▁without	-1268
▁individ	-1269
ased	-1270
▁ms	-1271
edededed	-1272
▁distribution	-1273
rate	-1274
▁prohibited	-1275
▁shipp	-1276
▁march	-1277
▁until	-1278
▁count	-1279
▁bankrupt	-1280
continental	-1281
▁sl	-1282
▁prev	-1283
▁secur	-1284
att	-1285
▁join	-1286
▁depart	-1287
no	-1288
rict	-1289
other	-1290
▁based	-1291
▁select	-1292
▁ill	-1293
▁personal	-1294
▁committee	-1295
▁prom	-1296
▁privacy	-1297
hou	-1298
▁hours	-1299
erial	-1300
itions	-1301
acity	-1302
▁cre	-1303
▁document	-1304
▁status	-1305
tp	-1306
▁em	-1307
▁point	-1308
▁subscrib	-1309
▁trade	-1310
▁author	-1311
val	-1312
load	-1313
sw	-1314
▁fac	-1315
▁feel	-1316
▁sender	-1317
▁dr	-1318
money	-1319
orrow	-1320
ever	-1321
tern	-1322
▁hotel	-1323
▁rate	-1324
▁coun	-1325
▁sav	-1326
▁come	-1327
▁total	-1328
▁info	-1329
▁times	-1330
▁intern	-1331
▁issue	-1332
cast	-1333
▁copyright	-1334
enn	-1335
▁night	-1336
thing	-1337
land	-1338
▁reli	-1339
▁privileged	-1340
▁stor	-1341
▁hav	-1342
▁sett	-1343
▁website	-1344
▁offic	-1345
▁exchange	-1346
vert	-1347
▁options	-1348
▁ge	-1349
▁pip	-1350
▁care	-1351
▁hpl	-1352
▁cash	-1353
▁hand	-1354
▁sug	-1355
▁test	-1356
▁street	-1357
kes	-1358
▁delete	-1359
▁hi	-1360
ude	-1361
▁lif	-1362
▁holiday	-1363
time	-1364
▁ty	-1365
▁talk	-1366
ital	-1367
▁iso	-1368
▁learn	-1369
ven	-1370
▁word	-1371
▁sta	-1372
▁love	-1373
▁version	-1374
▁art	-1375
▁consumers	-1376
▁material	-1377
▁richard	-1378
▁purchase	-1379
ases	-1380
▁prior	-1381
▁attend	-1382
▁capacity	-1383
▁ke	-1384
▁charts	-1385
▁got	-1386
enron	-1387
▁found	-1388
son	-1389
▁case	-1390
▁due	-1391
▁big	-1392
▁provided	-1393
▁put	-1394
of	-1395
▁believe	-1396
▁mer	-1397
arant	-1398
▁import	-1399
▁latest	-1400
▁demand	-1401
▁subsc	-1402
▁commission	-1403
▁indic	-1404
▁sk	-1405
wh	-1406
alf	-1407
ints	-1408
▁notify	-1409
ren	-1410
▁sincere	-1411
▁suggest	-1412
▁attachments	-1413
▁guarant	-1414
ature	-1415
▁interested	-1416
▁tomorrow	-1417
▁ju	-1418
▁weeks	-1419
▁looking	-1420
▁technology	-1421
au	-1422
ages	-1423
ark	-1424
▁med	-1425
▁customers	-1426
▁sincerely	-1427
▁final	-1428
word	-1429
ister	-1430
ilities	-1431
▁non	-1432
▁ef	-1433
▁schedule	-1434
▁head	-1435
▁andor	-1436
▁christ	-1437
▁comput	-1438
stand	-1439
▁fam	-1440
▁newslet	-1441
eral	-1442
▁sale	-1443
▁director	-1444
omet	-1445
▁cd	-1446
ford	-1447
ty	-1448
▁morn	-1449
by	-1450
iving	-1451
▁cer	-1452
▁remove	-1453
▁firm	-1454
▁cant	-1455
▁event	-1456
ites	-1457
▁lay	-1458
▁econ	-1459
▁netw	-1460
ale	-1461
▁enj	-1462
▁william	-1463
▁pet	-1464
eline	-1465
▁reserved	-1466
▁using	-1467
▁receiving	-1468
▁weekend	-1469
▁communication	-1470
▁donate	-1471
▁within	-1472
▁assist	-1473
▁recent	-1474
▁enrons	-1475
vers	-1476
▁download	-1477
▁school	-1478
▁same	-1479
▁benef	-1480
▁room	-1481
▁content	-1482
▁documents	-1483
tage	-1484
▁might	-1485
▁youll	-1486
▁funds	-1487
▁few	-1488
▁client	-1489
▁short	-1490
▁however	-1491
▁simp	-1492
▁begin	-1493
▁morning	-1494
ense	-1495
ging	-1496
▁enjoy	-1497
nect	-1498
ification	-1499
bo	-1500
▁pat	-1501
▁<<>>	-1502
per	-1503
semin	-1504
▁works	-1505
▁stand	-1506
▁weather	-1507
▁gover	-1508
aster	-1509
▁fool	-1510
▁econom	-1511
tember	-1512
▁expect	-1513
elle	-1514
og	-1515
ume	-1516
ili	-1517
▁beh	-1518
▁another	-1519
ser	-1520
mex	-1521
▁say	-1522
▁book	-1523
▁september	-1524
▁prot	-1525
▁somet	-1526
▁able	-1527
ware	-1528
▁american	-1529
▁respon	-1530
▁section	-1531
▁suite	-1532
▁mi	-1533
ceed	-1534
aim	-1535
aps	-1536
ither	-1537
▁south	-1538
▁continue	-1539
▁oil	-1540
▁national	-1541
▁subscription	-1542
▁youre	-1543
ced	-1544
▁print	-1545
▁possible	-1546
▁david	-1547
▁ho	-1548
gress	-1549
▁deals	-1550
▁incre	-1551
ready	-1552
ought	-1553
▁discussion	-1554
ier	-1555
▁things	-1556
▁har	-1557
▁reports	-1558
back	-1559
▁live	-1560
▁response	-1561
▁earn	-1562
▁already	-1563
▁dissemin	-1564
▁house	-1565
▁fo	-1566
▁valu	-1567
ws	-1568
ruary	-1569
itor	-1570
oice	-1571
▁ide	-1572
▁plus	-1573
▁discl	-1574
▁effor	-1575
▁february	-1576
▁important	-1577
▁univers	-1578
▁mc	-1579
self	-1580
▁america	-1581
▁hard	-1582
▁electron	-1583
▁soft	-1584
west	-1585
▁better	-1586
▁marketing	-1587
▁miss	-1588
▁analys	-1589
▁run	-1590
▁decl	-1591
unch	-1592
ving	-1593
▁three	-1594
▁items	-1595
▁really	-1596
▁govern	-1597
▁nymex	-1598
▁fund	-1599
ights	-1600
▁individual	-1601
▁concern	-1602
▁expl	-1603
ource	-1604
▁carr	-1605
▁opportunity	-1606
▁aug	-1607
▁friends	-1608
▁wind	-1609
▁const	-1610
▁plans	-1611
▁washing	-1612
▁wire	-1613
▁organ	-1614
▁prep	-1615
▁respect	-1616
lines	-1617
ined	-1618
▁around	-1619
ief	-1620
▁result	-1621
▁strate	-1622
▁companys	-1623
not	-1624
ross	-1625
▁analysis	-1626
clus	-1627
ourn	-1628
▁todays	-1629
▁bring	-1630
▁sole	-1631
▁recomm	-1632
ret	-1633
▁amaz	-1634
atives	-1635
▁close	-1636
ways	-1637
▁key	-1638
▁mid	-1639
▁stop	-1640
▁reason	-1641
▁michelle	-1642
ony	-1643
▁position	-1644
ves	-1645
▁life	-1646
▁party	-1647
▁washington	-1648
bal	-1649
▁password	-1650
view	-1651
ral	-1652
▁glo	-1653
▁nov	-1654
▁bills	-1655
gas	-1656
ng	-1657
▁bankruptcy	-1658
▁publish	-1659
▁deb	-1660
▁pack	-1661
▁cover	-1662
osure	-1663
phone	-1664
▁cut	-1665
▁executive	-1666
ones	-1667
▁bid	-1668
mitt	-1669
▁department	-1670
ker	-1671
ization	-1672
ior	-1673
▁doll	-1674
▁international	-1675
▁retire	-1676
▁electricity	-1677
ency	-1678
ping	-1679
▁speak	-1680
enue	-1681
▁answ	-1682
▁tell	-1683
pm	-1684
▁equ	-1685
itation	-1686
▁design	-1687
▁savings	-1688
ential	-1689
rade	-1690
▁litt	-1691
▁war	-1692
tail	-1693
▁area	-1694
▁value	-1695
▁dri	-1696
▁scheduled	-1697
▁quick	-1698
eed	-1699
email	-1700
▁cell	-1701
▁allow	-1702
▁register	-1703
way	-1704
▁cond	-1705
▁game	-1706
▁eng	-1707
▁why	-1708
▁utility	-1709
▁employee	-1710
ann	-1711
▁pap	-1712
dy	-1713
▁shipping	-1714
▁course	-1715
▁announ	-1716
▁profess	-1717
▁investment	-1718
▁university	-1719
▁manager	-1720
▁resources	-1721
umb	-1722
port	-1723
ually	-1724
▁pick	-1725
▁limited	-1726
▁rates	-1727
▁less	-1728
▁clos	-1729
▁easy	-1730
▁share	-1731
▁entity	-1732
▁either	-1733
▁experience	-1734
po	-1735
▁cou	-1736
▁williams	-1737
▁mailing	-1738
▁development	-1739
iles	-1740
▁little	-1741
▁unable	-1742
▁respond	-1743
▁hear	-1744
▁tel	-1745
▁pool	-1746
amed	-1747
▁paul	-1748
▁colle	-1749
▁crude	-1750
▁qual	-1751
rect	-1752
▁cra	-1753
▁newsletter	-1754
▁terms	-1755
image	-1756
ael	-1757
ries	-1758
▁confirmation	-1759
▁search	-1760
▁happy	-1761
▁used	-1762
▁links	-1763
ether	-1764
▁subscribe	-1765
az	-1766
▁nyiso	-1767
▁pge	-1768
▁required	-1769
▁currently	-1770
▁software	-1771
▁turn	-1772
▁browser	-1773
▁pric	-1774
▁revised	-1775
▁second	-1776
ders	-1777
▁lot	-1778
▁hell	-1779
▁legal	-1780
▁retirement	-1781
▁electronic	-1782
ats	-1783
▁clear	-1784
▁proceed	-1785
▁job	-1786
▁whether	-1787
▁four	-1788
▁text	-1789
ison	-1790
▁proposed	-1791
▁asked	-1792
▁staff	-1793
▁rick	-1794
▁black	-1795
▁pipeline	-1796
▁ve	-1797
▁bon	-1798
▁fact	-1799
▁mot	-1800
▁affili	-1801
▁index	-1802
▁early	-1803
▁ap	-1804
ooks	-1805
▁tre	-1806
▁understand	-1807
▁mike	-1808
▁getting	-1809
▁log	-1810
▁thought	-1811
▁press	-1812
ater	-1813
sure	-1814
▁family	-1815
▁needs	-1816
▁copies	-1817
▁cert	-1818
▁mom	-1819
▁action	-1820
▁season	-1821
▁expressed	-1822
▁consider	-1823
▁perform	-1824
doc	-1825
▁camp	-1826
utes	-1827
ling	-1828
▁track	-1829
ners	-1830
▁canc	-1831
▁nomin	-1832
▁eu	-1833
ters	-1834
▁sand	-1835
▁activ	-1836
itten	-1837
▁far	-1838
▁michael	-1839
▁reach	-1840
▁states	-1841
▁nothing	-1842
ding	-1843
▁millions	-1844
▁participants	-1845
▁later	-1846
iven	-1847
thers	-1848
▁fed	-1849
pri	-1850
itch	-1851
▁tar	-1852
▁div	-1853
▁once	-1854
▁global	-1855
▁gl	-1856
▁stay	-1857
ester	-1858
▁fav	-1859
mpt	-1860
▁exclus	-1861
▁q	-1862
uel	-1863
▁steve	-1864
▁watch	-1865
▁everyone	-1866
▁points	-1867
▁shopping	-1868
off	-1869
▁registration	-1870
▁effective	-1871
▁cam	-1872
▁relations	-1873
▁dou	-1874
▁general	-1875
▁artic	-1876
▁advert	-1877
▁purp	-1878
▁rele	-1879
▁admin	-1880
▁profile	-1881
ax	-1882
▁opin	-1883
▁approval	-1884
ular	-1885
▁attorn	-1886
uck	-1887
▁dan	-1888
rial	-1889
▁always	-1890
▁vice	-1891
ably	-1892
▁dev	-1893
▁rul	-1894
▁july	-1895
▁der	-1896
▁pal	-1897
▁recommend	-1898
▁simply	-1899
▁written	-1900
▁mus	-1901
▁sus	-1902
ires	-1903
cs	-1904
▁prob	-1905
▁network	-1906
reci	-1907
▁though	-1908
▁registered	-1909
▁feed	-1910
▁discussed	-1911
▁dest	-1912
▁advis	-1913
▁chair	-1914
und	-1915
▁agend	-1916
▁spons	-1917
ults	-1918
▁desc	-1919
▁strict	-1920
▁events	-1921
▁connect	-1922
igation	-1923
▁done	-1924
▁los	-1925
▁kim	-1926
▁satur	-1927
▁contracts	-1928
▁emails	-1929
▁init	-1930
aut	-1931
▁computer	-1932
▁amount	-1933
▁llc	-1934
▁august	-1935
▁supply	-1936
▁exhib	-1937
▁appreci	-1938
▁build	-1939
▁something	-1940
ba	-1941
ield	-1942
▁having	-1943
▁parties	-1944
▁named	-1945
▁correct	-1946
▁directly	-1947
▁old	-1948
isions	-1949
▁brief	-1950
▁exclusive	-1951
▁yet	-1952
▁saturday	-1953
ccess	-1954
ird	-1955
▁occ	-1956
▁quot	-1957
ators	-1958
▁generation	-1959
ips	-1960
▁cannot	-1961
▁vac	-1962
▁release	-1963
▁corporate	-1964
▁euro	-1965
▁complet	-1966
▁lou	-1967
▁finance	-1968
▁protect	-1969
▁wel	-1970
▁flo	-1971
▁favor	-1972
▁strictly	-1973
raph	-1974
ring	-1975
▁doing	-1976
▁charge	-1977
▁corporation	-1978
▁hold	-1979
gether	-1980
▁contro	-1981
fol	-1982
inc	-1983
▁remin	-1984
▁against	-1985
▁code	-1986
utions	-1987
ues	-1988
▁maj	-1989
▁never	-1990
▁consult	-1991
▁pot	-1992
▁telephone	-1993
bert	-1994
▁sess	-1995
gif	-1996
▁eb	-1997
▁east	-1998
▁accord	-1999
hop	-2000
▁hur	-2001
▁grow	-2002
▁claim	-2003
▁prod	-2004
▁anyone	-2005
▁declared	-2006
▁tickets	-2007
▁published	-2008
▁autom	-2009
▁smith	-2010
▁previous	-2011
▁administ	-2012
▁wanted	-2013
mitted	-2014
gies	-2015
▁agenda	-2016
ored	-2017
rong	-2018
▁dissemination	-2019
▁wal	-2020
gate	-2021
▁coup	-2022
ists	-2023
▁specific	-2024
ows	-2025
▁choo	-2026
▁fares	-2027
iod	-2028
ead	-2029
alth	-2030
▁accur	-2031
▁ok	-2032
ium	-2033
▁clicking	-2034
▁main	-2035
▁train	-2036
▁problems	-2037
tm	-2038
dge	-2039
▁instruct	-2040
cul	-2041
ane	-2042
▁phot	-2043
▁disclosure	-2044
▁ii	-2045
▁cris	-2046
ically	-2047
▁sunday	-2048
wise	-2049
▁vide	-2050
▁given	-2051
▁summary	-2052
▁transaction	-2053
ken	-2054
▁success	-2055
▁amazon	-2056
▁bul	-2057
▁question	-2058
▁prefer	-2059
▁etrade	-2060
▁weekly	-2061
aol	-2062
▁together	-2063
houect	-2064
ounts	-2065
xim	-2066
▁jim	-2067
▁thats	-2068
▁sever	-2069
▁tit	-2070
▁ra	-2071
▁impro	-2072
▁behalf	-2073
▁ps	-2074
▁includes	-2075
ney	-2076
erences	-2077
▁scott	-2078
▁forecast	-2079
▁vir	-2080
▁updated	-2081
▁settlement	-2082
member	-2083
▁break	-2084
▁summer	-2085
▁sports	-2086
▁anything	-2087
▁fol	-2088
▁paper	-2089
▁confirmed	-2090
▁var	-2091
▁fwd	-2092
▁type	-2093
atory	-2094
▁ive	-2095
▁left	-2096
▁bob	-2097
▁away	-2098
▁included	-2099
▁yourself	-2100
aso	-2101
got	-2102
▁worth	-2103
▁standard	-2104
▁numbers	-2105
▁payment	-2106
▁rule	-2107
ivered	-2108
▁regular	-2109
coming	-2110
▁rema	-2111
▁crisis	-2112
▁major	-2113
▁months	-2114
▁security	-2115
▁communications	-2116
▁din	-2117
▁sold	-2118
tr	-2119
ball	-2120
▁lost	-2121
▁profit	-2122
orp	-2123
▁sat	-2124
▁membership	-2125
▁others	-2126
iron	-2127
▁cir	-2128
▁box	-2129
uce	-2130
▁quant	-2131
▁minutes	-2132
▁fre	-2133
aking	-2134
▁shall	-2135
ending	-2136
▁compet	-2137
▁aud	-2138
▁delivered	-2139
reg	-2140
folio	-2141
▁chance	-2142
▁sor	-2143
▁ng	-2144
▁annual	-2145
▁someone	-2146
▁writing	-2147
▁ima	-2148
▁solely	-2149
▁dom	-2150
pg	-2151
▁env	-2152
▁least	-2153
▁cru	-2154
▁etc	-2155
▁senior	-2156
▁den	-2157
▁apply	-2158
olf	-2159
▁feedback	-2160
▁division	-2161
▁receip	-2162
▁planning	-2163
pect	-2164
▁storage	-2165
▁story	-2166
pa	-2167
ensive	-2168
▁coming	-2169
▁user	-2170
▁cand	-2171
ledge	-2172
erent	-2173
▁floor	-2174
▁systems	-2175
umbia	-2176
▁ident	-2177
▁benefit	-2178
▁promot	-2179
▁tool	-2180
urance	-2181
▁near	-2182
antage	-2183
▁dollars	-2184
ocus	-2185
cap	-2186
▁listed	-2187
▁source	-2188
▁results	-2189
▁fare	-2190
▁proced	-2191
▁indep	-2192
▁round	-2193
▁efforts	-2194
▁fuel	-2195
itive	-2196
▁tur	-2197
▁load	-2198
▁deriv	-2199
pd	-2200
▁flow	-2201
▁trip	-2202
▁bra	-2203
▁sorry	-2204
atures	-2205
▁official	-2206
sh	-2207
▁rules	-2208
▁foot	-2209
▁remember	-2210
ara	-2211
vey	-2212
▁changed	-2213
▁several	-2214
▁dates	-2215
▁accept	-2216
▁upon	-2217
▁certific	-2218
▁thous	-2219
▁probably	-2220
▁capital	-2221
vd	-2222
resse	-2223
ournal	-2224
▁transactions	-2225
angu	-2226
▁attorney	-2227
▁ever	-2228
▁sing	-2229
▁decision	-2230
▁hist	-2231
▁focus	-2232
▁lic	-2233
▁counsel	-2234
▁pir	-2235
▁pricing	-2236
▁become	-2237
cket	-2238
▁making	-2239
▁otherwise	-2240
ness	-2241
▁period	-2242
▁interview	-2243
▁bal	-2244
▁norm	-2245
▁yester	-2246
▁assign	-2247
lex	-2248
▁option	-2249
▁yesterday	-2250
mas	-2251
▁responsible	-2252
▁hello	-2253
▁problem	-2254
▁realtime	-2255
▁plat	-2256
▁retail	-2257
▁music	-2258
▁dig	-2259
▁else	-2260
aolcom	-2261
▁orders	-2262
▁taking	-2263
▁technical	-2264
iqu	-2265
▁requested	-2266
▁portfolio	-2267
▁player	-2268
▁airlines	-2269
na	-2270
▁largest	-2271
▁amazoncom	-2272
▁video	-2273
▁jud	-2274
the	-2275
ask	-2276
ted	-2277
▁securities	-2278
▁late	-2279
▁united	-2280
cal	-2281
noon	-2282
▁emer	-2283
▁selling	-2284
▁removed	-2285
▁workshop	-2286
rip	-2287
fl	-2288
▁says	-2289
▁deliver	-2290
▁pac	-2291
▁pract	-2292
mtp	-2293
▁different	-2294
▁dow	-2295
▁broad	-2296
▁vince	-2297
▁pros	-2298
etings	-2299
▁won	-2300
ago	-2301
▁buying	-2302
▁along	-2303
▁paste	-2304
▁federal	-2305
▁eg	-2306
▁llp	-2307
▁europe	-2308
▁ple	-2309
▁posted	-2310
rs	-2311
▁welcome	-2312
▁implement	-2313
▁appear	-2314
loc	-2315
▁fall	-2316
ares	-2317
uff	-2318
▁pref	-2319
rote	-2320
table	-2321
▁groups	-2322
▁partners	-2323
▁bure	-2324
▁application	-2325
▁conditions	-2326
▁games	-2327
▁utilities	-2328
▁alert	-2329
▁semin	-2330
▁evening	-2331
▁louis	-2332
▁analyst	-2333
▁reported	-2334
▁local	-2335
▁hearing	-2336
▁small	-2337
▁monthly	-2338
ising	-2339
▁held	-2340
▁esmtp	-2341
▁media	-2342
ordin	-2343
▁termin	-2344
jm	-2345
▁color	-2346
▁robert	-2347
▁environ	-2348
▁afternoon	-2349
▁usa	-2350
▁kind	-2351
▁na	-2352
▁basis	-2353
▁sanders	-2354
▁master	-2355
▁intro	-2356
▁thousands	-2357
thern	-2358
▁tradem	-2359
ada	-2360
▁longer	-2361
edededededededed	-2362
erm	-2363
▁lunch	-2364
▁pict	-2365
▁chris	-2366
▁volume	-2367
▁reference	-2368
▁health	-2369
▁ready	-2370
cle	-2371
mit	-2372
▁training	-2373
cess	-2374
▁feature	-2375
▁potential	-2376
osed	-2377
▁invol	-2378
▁langu	-2379
▁wireless	-2380
▁hes	-2381
▁auct	-2382
▁central	-2383
▁directors	-2384
rop	-2385
▁ticket	-2386
▁fast	-2387
▁vacation	-2388
▁adj	-2389
▁club	-2390
▁secret	-2391
▁wrote	-2392
▁move	-2393
▁model	-2394
▁receipt	-2395
▁plant	-2396
▁statement	-2397
ury	-2398
▁mor	-2399
▁mag	-2400
▁subscribed	-2401
▁pers	-2402
▁collect	-2403
ina	-2404
▁chic	-2405
▁transfer	-2406
▁instru	-2407
▁notified	-2408
▁sit	-2409
rix	-2410
▁sending	-2411
▁nat	-2412
▁clearing	-2413
▁operations	-2414
box	-2415
jpg	-2416
▁aust	-2417
▁hu	-2418
head	-2419
▁pjm	-2420
▁seem	-2421
▁environment	-2422
▁rob	-2423
▁star	-2424
▁derivatives	-2425
▁court	-2426
▁arri	-2427
▁necess	-2428
bl	-2429
▁sle	-2430
▁expense	-2431
isco	-2432
▁earli	-2433
▁bureau	-2434
▁comment	-2435
ructure	-2436
▁answer	-2437
fect	-2438
▁term	-2439
▁dinner	-2440
▁matter	-2441
▁added	-2442
▁performance	-2443
▁advantage	-2444
▁instructions	-2445
▁private	-2446
▁insurance	-2447
▁joe	-2448
▁cp	-2449
▁costs	-2450
▁mic	-2451
▁miles	-2452
▁hey	-2453
ki	-2454
▁outs	-2455
umn	-2456
ibility	-2457
▁record	-2458
aren	-2459
▁franc	-2460
▁related	-2461
▁appreciate	-2462
ses	-2463
▁exhibit	-2464
erve	-2465
▁drive	-2466
▁youve	-2467
▁il	-2468
uals	-2469
▁third	-2470
▁ast	-2471
▁cancel	-2472
izing	-2473
▁language	-2474
▁participate	-2475
▁green	-2476
▁pacific	-2477
▁commod	-2478
▁christmas	-2479
▁regulatory	-2480
▁chicago	-2481
▁whats	-2482
ondon	-2483
▁relief	-2484
▁tv	-2485
▁datab	-2486
▁updates	-2487
▁presentation	-2488
▁desk	-2489
▁called	-2490
▁estim	-2491
▁mention	-2492
▁fill	-2493
▁discount	-2494
ien	-2495
▁fee	-2496
▁control	-2497
▁announce	-2498
mbt	-2499
▁choose	-2500
▁addresse	-2501
isl	-2502
▁requirements	-2503
gs	-2504
ris	-2505
ances	-2506
▁ideas	-2507
▁instruments	-2508
▁session	-2509
▁notification	-2510
▁hy	-2511
▁geor	-2512
np	-2513
rom	-2514
aded	-2515
▁filing	-2516
▁increase	-2517
▁london	-2518
▁propert	-2519
▁remain	-2520
▁reservation	-2521
ai	-2522
umes	-2523
▁monitor	-2524
fe	-2525
aries	-2526
ny	-2527
▁columbia	-2528
▁level	-2529
arter	-2530
▁haas	-2531
▁told	-2532
▁ber	-2533
▁bonus	-2534
▁mem	-2535
▁field	-2536
▁nas	-2537
▁industrial	-2538
▁paid	-2539
▁strong	-2540
▁davis	-2541
▁firms	-2542
▁contains	-2543
▁independ	-2544
arks	-2545
▁eastern	-2546
ids	-2547
anded	-2548
▁features	-2549
news	-2550
▁god	-2551
▁addressed	-2552
▁gold	-2553
▁everything	-2554
▁trial	-2555
locity	-2556
▁forum	-2557
▁tout	-2558
▁representative	-2559
▁edit	-2560
▁confidentiality	-2561
▁pd	-2562
▁except	-2563
▁revenue	-2564
▁sources	-2565
▁mean	-2566
▁micro	-2567
▁reflect	-2568
▁create	-2569
▁entire	-2570
pro	-2571
▁yes	-2572
▁charges	-2573
▁reminder	-2574
▁travelocity	-2575
▁jones	-2576
over	-2577
▁rock	-2578
▁didnt	-2579
▁amend	-2580
enroncom	-2581
▁coll	-2582
▁arr	-2583
▁guarantee	-2584
ino	-2585
uation	-2586
▁beginning	-2587
▁transition	-2588
▁basic	-2589
▁accurate	-2590
▁solic	-2591
mazing	-2592
▁james	-2593
where	-2594
wide	-2595
wards	-2596
▁fy	-2597
uted	-2598
▁lik	-2599
▁opportunities	-2600
▁favorite	-2601
▁follows	-2602
▁inqu	-2603
▁ant	-2604
▁temp	-2605
▁copying	-2606
▁afford	-2607
▁format	-2608
▁legisl	-2609
▁matrix	-2610
ully	-2611
▁inte	-2612
▁appropri	-2613
▁outl	-2614
▁considered	-2615
▁participant	-2616
▁flight	-2617
▁normal	-2618
▁consent	-2619
ster	-2620
▁impact	-2621
▁msn	-2622
ively	-2623
▁proposal	-2624
ouch	-2625
▁whole	-2626
▁opinions	-2627
roll	-2628
▁clients	-2629
ush	-2630
▁effect	-2631
▁pan	-2632
▁bullet	-2633
▁meetings	-2634
uth	-2635
▁trying	-2636
▁continental	-2637
▁font	-2638
▁instit	-2639
▁reservations	-2640
▁bott	-2641
▁needed	-2642
▁affiliates	-2643
▁match	-2644
▁weve	-2645
▁association	-2646
▁cera	-2647
▁location	-2648
▁grad	-2649
▁leave	-2650
▁light	-2651
▁conven	-2652
▁perfect	-2653
new	-2654
▁hub	-2655
erts	-2656
▁quotes	-2657
▁dc	-2658
▁sy	-2659
▁therefore	-2660
▁college	-2661
imin	-2662
▁side	-2663
▁dy	-2664
▁journal	-2665
▁messages	-2666
ico	-2667
▁white	-2668
▁students	-2669
cent	-2670
▁assistance	-2671
▁host	-2672
ially	-2673
▁alth	-2674
▁heres	-2675
▁depos	-2676
▁certain	-2677
ik	-2678
la	-2679
▁bud	-2680
▁comb	-2681
▁users	-2682
ler	-2683
▁fix	-2684
▁large	-2685
▁administr	-2686
ref	-2687
yle	-2688
verage	-2689
▁coordin	-2690
mark	-2691
ounds	-2692
▁jack	-2693
▁reb	-2694
▁hereby	-2695
ze	-2696
▁independent	-2697
▁fyi	-2698
▁repl	-2699
▁francisco	-2700
▁looks	-2701
▁adjust	-2702
▁although	-2703
▁trades	-2704
▁article	-2705
▁advisory	-2706
▁makes	-2707
ana	-2708
▁fees	-2709
▁thing	-2710
▁files	-2711
▁outside	-2712
▁mind	-2713
▁youd	-2714
▁lives	-2715
▁sites	-2716
▁url	-2717
▁water	-2718
▁quantity	-2719
▁thin	-2720
▁andre	-2721
▁improve	-2722
▁traders	-2723
oses	-2724
itical	-2725
▁country	-2726
etary	-2727
▁separ	-2728
▁legally	-2729
▁solutions	-2730
▁wall	-2731
ired	-2732
wor	-2733
▁store	-2734
▁integr	-2735
vin	-2736
▁rather	-2737
▁study	-2738
▁financially	-2739
▁guest	-2740
▁survey	-2741
duction	-2742
▁guys	-2743
ulation	-2744
▁holidays	-2745
▁king	-2746
▁8	-2747
▁community	-2748
▁subs	-2749
iana	-2750
issions	-2751
▁stocks	-2752
pec	-2753
▁road	-2754
▁trust	-2755
▁dial	-2756
▁resol	-2757
▁destin	-2758
▁gri	-2759
allen	-2760
▁bush	-2761
▁tap	-2762
▁phil	-2763
▁career	-2764
▁exist	-2765
gu	-2766
▁facility	-2767
▁ange	-2768
▁peter	-2769
▁necessary	-2770
▁bad	-2771
▁cruise	-2772
opm	-2773
▁hall	-2774
▁starting	-2775
▁park	-2776
fo	-2777
▁hill	-2778
▁words	-2779
berg	-2780
▁explore	-2781
▁went	-2782
▁exped	-2783
▁americans	-2784
ho	-2785
▁calend	-2786
▁phys	-2787
▁heard	-2788
▁earlier	-2789
▁da	-2790
goti	-2791
▁palm	-2792
▁gifts	-2793
▁volumes	-2794
▁touch	-2795
ample	-2796
▁closing	-2797
▁lets	-2798
▁ship	-2799
▁taken	-2800
▁certificate	-2801
▁couple	-2802
▁signed	-2803
▁database	-2804
▁reliable	-2805
▁mis	-2806
▁golf	-2807
▁package	-2808
iter	-2809
▁five	-2810
▁enc	-2811
▁lab	-2812
▁attachment	-2813
▁fly	-2814
▁cool	-2815
toemail	-2816
▁activities	-2817
▁ton	-2818
ayl	-2819
▁jul	-2820
▁clean	-2821
▁indicated	-2822
▁dead	-2823
▁instant	-2824
▁ban	-2825
nd	-2826
▁windows	-2827
▁series	-2828
▁building	-2829
card	-2830
▁cross	-2831
▁propri	-2832
▁history	-2833
▁aol	-2834
giving	-2835
▁testim	-2836
▁signific	-2837
▁arch	-2838
▁greg	-2839
▁wonder	-2840
ica	-2841
▁advice	-2842
▁rly	-2843
▁stuff	-2844
▁applicable	-2845
otech	-2846
▁whol	-2847
reed	-2848
ering	-2849
▁carol	-2850
▁spot	-2851
▁princ	-2852
▁valid	-2853
▁repair	-2854
rad	-2855
▁pocket	-2856
▁proprietary	-2857
▁ena	-2858
▁doesnt	-2859
▁programs	-2860
▁memo	-2861
▁voice	-2862
ider	-2863
▁officers	-2864
▁posting	-2865
▁secretary	-2866
▁happen	-2867
▁compli	-2868
▁pop	-2869
▁warn	-2870
▁provides	-2871
▁expected	-2872
▁operating	-2873
▁>>	-2874
▁rad	-2875
▁filed	-2876
▁challen	-2877
▁leading	-2878
▁bow	-2879
lose	-2880
▁upgr	-2881
▁appropriate	-2882
▁maybe	-2883
▁thom	-2884
▁aggress	-2885
▁greetings	-2886
fax	-2887
▁recipients	-2888
▁suggestions	-2889
▁resume	-2890
▁subsid	-2891
▁ft	-2892
▁construct	-2893
▁organization	-2894
web	-2895
▁bur	-2896
▁ceo	-2897
▁advance	-2898
▁mex	-2899
▁leaders	-2900
mt	-2901
▁testimony	-2902
▁hurt	-2903
▁likely	-2904
▁negoti	-2905
▁6	-2906
▁ensure	-2907
wood	-2908
▁produc	-2909
olog	-2910
▁property	-2911
▁significant	-2912
▁seminar	-2913
top	-2914
▁fine	-2915
▁paso	-2916
▁continu	-2917
▁oh	-2918
▁mult	-2919
▁quality	-2920
hold	-2921
books	-2922
ery	-2923
ream	-2924
▁spo	-2925
▁heat	-2926
▁gra	-2927
▁government	-2928
▁strategy	-2929
den	-2930
▁coverage	-2931
asure	-2932
▁rent	-2933
▁minim	-2934
▁areas	-2935
▁delay	-2936
▁altern	-2937
col	-2938
▁half	-2939
▁advise	-2940
wr	-2941
▁du	-2942
▁worlds	-2943
▁hun	-2944
▁indeed	-2945
▁debt	-2946
▁thanksgiving	-2947
▁havent	-2948
▁metals	-2949
▁purposes	-2950
▁ls	-2951
▁cst	-2952
▁ahead	-2953
▁theres	-2954
▁digital	-2955
▁plac	-2956
▁wont	-2957
▁seller	-2958
▁skill	-2959
▁recently	-2960
▁solicitation	-2961
▁pret	-2962
▁automat	-2963
bit	-2964
▁approved	-2965
ublic	-2966
▁reserve	-2967
▁quarter	-2968
▁brown	-2969
▁chairman	-2970
▁proceeds	-2971
elf	-2972
gen	-2973
▁guaranteed	-2974
▁prem	-2975
▁camer	-2976
▁dvd	-2977
▁obl	-2978
house	-2979
▁microso	-2980
▁wait	-2981
▁candid	-2982
reen	-2983
rans	-2984
▁describ	-2985
▁agreements	-2986
▁men	-2987
▁wom	-2988
▁joint	-2989
▁mba	-2990
▁former	-2991
eth	-2992
aylor	-2993
▁george	-2994
▁dell	-2995
▁super	-2996
▁toute	-2997
▁active	-2998
▁noon	-2999
▁chief	-3000
▁spring	-3001
▁bulletin	-3002
author	-3003
▁nyis	-3004
▁trademarks	-3005
rant	-3006
▁citygate	-3007
ham	-3008
▁prepared	-3009
▁dad	-3010
▁mmbt	-3011
▁western	-3012
▁blank	-3013
enture	-3014
ructuring	-3015
▁approach	-3016
▁trou	-3017
gl	-3018
▁sandershouect	-3019
▁means	-3020
▁shares	-3021
▁commodity	-3022
▁pen	-3023
▁mailtoemail	-3024
▁canada	-3025
▁alloc	-3026
▁concerns	-3027
▁reliability	-3028
▁unle	-3029
▁urge	-3030
ety	-3031
cks	-3032
ias	-3033
▁mary	-3034
▁average	-3035
▁rto	-3036
▁thoughts	-3037
▁lst	-3038
▁fail	-3039
▁tariff	-3040
▁auction	-3041
▁write	-3042
fact	-3043
▁lind	-3044
▁unit	-3045
ahead	-3046
asing	-3047
▁requests	-3048
play	-3049
▁investors	-3050
▁associates	-3051
▁particular	-3052
▁hum	-3053
ique	-3054
▁liqu	-3055
▁books	-3056
▁frank	-3057
▁child	-3058
▁according	-3059
▁vote	-3060
▁isda	-3061
do	-3062
▁enough	-3063
▁base	-3064
itigation	-3065
▁sn	-3066
▁ack	-3067
▁body	-3068
ots	-3069
▁accom	-3070
erry	-3071
▁imageimage	-3072
▁stan	-3073
▁louisiana	-3074
▁professional	-3075
watch	-3076
▁earnings	-3077
eek	-3078
▁vegas	-3079
▁contrib	-3080
put	-3081
▁ball	-3082
▁refer	-3083
▁upcoming	-3084
▁lawy	-3085
ension	-3086
▁subsidi	-3087
▁cas	-3088
▁advertise	-3089
▁seen	-3090
▁initi	-3091
hol	-3092
▁memor	-3093
▁socal	-3094
▁preferences	-3095
ulf	-3096
▁maxim	-3097
▁specials	-3098
reh	-3099
semb	-3100
▁blo	-3101
quent	-3102
▁secure	-3103
lan	-3104
place	-3105
▁defin	-3106
▁hed	-3107
daq	-3108
▁urging	-3109
▁outlook	-3110
ida	-3111
▁effort	-3112
▁economic	-3113
chang	-3114
▁bottom	-3115
▁names	-3116
▁availability	-3117
icult	-3118
▁front	-3119
▁calendar	-3120
▁hit	-3121
▁quote	-3122
based	-3123
▁nice	-3124
▁typ	-3125
ablish	-3126
▁senate	-3127
▁educ	-3128
▁executed	-3129
▁cy	-3130
▁ago	-3131
▁reader	-3132
▁aggressively	-3133
▁pc	-3134
▁tools	-3135
▁difficult	-3136
▁agreed	-3137
▁calcul	-3138
▁minute	-3139
authorized	-3140
br	-3141
▁accounts	-3142
oint	-3143
▁disp	-3144
▁notes	-3145
▁avenue	-3146
▁football	-3147
▁higher	-3148
▁pretty	-3149
mon	-3150
lied	-3151
▁engine	-3152
▁microsoft	-3153
▁las	-3154
▁invitation	-3155
bell	-3156
▁flor	-3157
▁coast	-3158
▁edition	-3159
▁agent	-3160
ux	-3161
▁lower	-3162
▁cit	-3163
▁devast	-3164
▁unless	-3165
▁wip	-3166
▁exam	-3167
roy	-3168
▁bir	-3169
▁affect	-3170
▁nasdaq	-3171
▁seeing	-3172
▁production	-3173
anced	-3174
▁subscriber	-3175
iner	-3176
▁ten	-3177
▁growth	-3178
▁talking	-3179
▁dealings	-3180
▁connection	-3181
▁pie	-3182
▁wat	-3183
▁idea	-3184
pc	-3185
▁billion	-3186
▁indicate	-3187
▁larry	-3188
▁assess	-3189
▁astron	-3190
▁projects	-3191
▁attention	-3192
eli	-3193
▁fixed	-3194
▁convers	-3195
▁respects	-3196
▁across	-3197
▁purpose	-3198
▁actually	-3199
▁assemb	-3200
▁swe	-3201
▁investor	-3202
ains	-3203
▁compreh	-3204
▁investing	-3205
▁unauthorized	-3206
▁hen	-3207
▁cpuc	-3208
▁transport	-3209
▁assignment	-3210
▁providing	-3211
ercial	-3212
▁pira	-3213
▁physical	-3214
gre	-3215
erce	-3216
ided	-3217
▁distributed	-3218
cr	-3219
▁astronom	-3220
che	-3221
▁brian	-3222
▁existing	-3223
tun	-3224
▁prim	-3225
▁authorized	-3226
allas	-3227
▁eric	-3228
▁abs	-3229
▁successful	-3230
income	-3231
book	-3232
handed	-3233
22	-3234
▁waiting	-3235
▁offering	-3236
▁devastated	-3237
▁pow	-3238
▁wiped	-3239
▁benefits	-3240
▁syn	-3241
▁netted	-3242
▁breaking	-3243
oper	-3244
▁lowincome	-3245
▁giving	-3246
cil	-3247
uate	-3248
▁conduct	-3249
▁knowledge	-3250
▁issued	-3251
free	-3252
itate	-3253
▁differ	-3254
▁started	-3255
▁nw	-3256
▁hol	-3257
▁gary	-3258
▁extra	-3259
▁located	-3260
asons	-3261
rie	-3262
▁mov	-3263
▁title	-3264
▁underhanded	-3265
oe	-3266
orpor	-3267
▁restrict	-3268
▁astronomical	-3269
▁sheet	-3270
▁calling	-3271
▁establish	-3272
▁immediate	-3273
▁comprehensive	-3274
▁winter	-3275
ism	-3276
▁pocketbooks	-3277
▁town	-3278
▁involved	-3279
els	-3280
ateg	-3281
gency	-3282
▁broker	-3283
▁entertain	-3284
▁acknow	-3285
▁takes	-3286
▁lib	-3287
▁outa	-3288
ero	-3289
▁gar	-3290
▁tue	-3291
▁previously	-3292
rob	-3293
▁writes	-3294
▁advised	-3295
▁owners	-3296
▁participation	-3297
ett	-3298
▁jobs	-3299
▁indices	-3300
▁swaps	-3301
▁outage	-3302
▁ey	-3303
▁initial	-3304
▁age	-3305
▁mcc	-3306
▁taxes	-3307
ername	-3308
▁assum	-3309
▁dallas	-3310
▁contents	-3311
▁object	-3312
app	-3313
▁acqu	-3314
kers	-3315
term	-3316
airs	-3317
more	-3318
▁space	-3319
▁margin	-3320
▁9	-3321
▁single	-3322
▁consulting	-3323
pass	-3324
▁schw	-3325
▁comex	-3326
▁limit	-3327
▁valuable	-3328
▁choice	-3329
▁various	-3330
nn	-3331
▁vi	-3332
order	-3333
▁commercial	-3334
▁austin	-3335
▁restructuring	-3336
▁hon	-3337
imes	-3338
▁sil	-3339
▁caiso	-3340
▁assistant	-3341
ibas	-3342
▁die	-3343
▁submitted	-3344
▁datek	-3345
▁wood	-3346
▁interact	-3347
▁cele	-3348
▁merch	-3349
▁paribas	-3350
▁luck	-3351
tin	-3352
▁guide	-3353
▁thu	-3354
aenron	-3355
lin	-3356
▁congress	-3357
pre	-3358
▁funct	-3359
▁retain	-3360
▁liquid	-3361
▁incorpor	-3362
▁thinking	-3363
▁rs	-3364
▁disclose	-3365
▁tracking	-3366
▁bnp	-3367
▁button	-3368
▁editor	-3369
▁deter	-3370
▁target	-3371
▁positions	-3372
▁taylor	-3373
▁dave	-3374
ao	-3375
aint	-3376
▁tips	-3377
▁claims	-3378
▁construction	-3379
▁structure	-3380
part	-3381
▁ener	-3382
ises	-3383
resp	-3384
▁ess	-3385
▁stories	-3386
▁relationship	-3387
▁views	-3388
▁mentioned	-3389
▁mob	-3390
▁fair	-3391
▁offered	-3392
▁leav	-3393
▁wholes	-3394
▁true	-3395
▁specified	-3396
ides	-3397
▁ec	-3398
▁invite	-3399
▁arrange	-3400
▁kevin	-3401
▁bi	-3402
▁shows	-3403
cep	-3404
dle	-3405
▁plants	-3406
ager	-3407
negy	-3408
▁purchases	-3409
rought	-3410
▁topics	-3411
▁serious	-3412
▁gir	-3413
▁judge	-3414
▁quickly	-3415
▁among	-3416
▁obtain	-3417
▁southern	-3418
ned	-3419
ilar	-3420
▁circul	-3421
▁licens	-3422
arent	-3423
aq	-3424
▁crack	-3425
▁finally	-3426
▁scheduling	-3427
cing	-3428
from	-3429
▁networ	-3430
▁charles	-3431
▁trouble	-3432
▁emergency	-3433
▁nyisotech	-3434
cot	-3435
▁turb	-3436
▁colleag	-3437
▁assembly	-3438
▁selection	-3439
▁nomination	-3440
▁blue	-3441
▁encour	-3442
▁partner	-3443
▁edison	-3444
▁explorer	-3445
▁minimum	-3446
▁addresses	-3447
oss	-3448
▁force	-3449
▁respective	-3450
▁smtp	-3451
▁susan	-3452
▁republic	-3453
my	-3454
▁exe	-3455
▁approxim	-3456
isa	-3457
▁util	-3458
▁lyn	-3459
▁sam	-3460
▁catch	-3461
▁mexico	-3462
▁install	-3463
▁detailed	-3464
▁calp	-3465
▁step	-3466
▁sound	-3467
▁articles	-3468
▁stake	-3469
ille	-3470
▁size	-3471
▁highl	-3472
▁wholesale	-3473
▁ts	-3474
▁spend	-3475
▁smart	-3476
▁tam	-3477
comments	-3478
ifications	-3479
▁range	-3480
▁economy	-3481
asts	-3482
igence	-3483
▁releases	-3484
rey	-3485
amins	-3486
▁mil	-3487
▁unique	-3488
▁determin	-3489
bri	-3490
▁six	-3491
▁categ	-3492
▁haw	-3493
▁folks	-3494
▁concerning	-3495
▁wine	-3496
▁selected	-3497
attle	-3498
▁kids	-3499
▁organiz	-3500
ura	-3501
▁seems	-3502
▁experien	-3503
rap	-3504
▁px	-3505
icip	-3506
idence	-3507
▁introd	-3508
▁ell	-3509
▁occur	-3510
▁opening	-3511
▁opinion	-3512
▁tonight	-3513
bur	-3514
▁kay	-3515
▁gets	-3516
▁pursu	-3517
▁budget	-3518
conf	-3519
▁land	-3520
▁toll	-3521
▁understanding	-3522
kins	-3523
▁occas	-3524
▁moving	-3525
hod	-3526
▁enh	-3527
▁running	-3528
▁cooper	-3529
coms	-3530
▁cart	-3531
▁cards	-3532
oid	-3533
station	-3534
▁brought	-3535
▁expedia	-3536
▁platform	-3537
▁tenn	-3538
▁bit	-3539
▁birth	-3540
▁spreads	-3541
▁lt	-3542
▁steph	-3543
▁equity	-3544
ancy	-3545
▁emb	-3546
xaolcom	-3547
▁destroy	-3548
▁alerts	-3549
▁jose	-3550
▁council	-3551
▁materials	-3552
cf	-3553
▁florida	-3554
▁completed	-3555
▁switch	-3556
▁station	-3557
lies	-3558
▁listen	-3559
▁region	-3560
atever	-3561
▁guess	-3562
most	-3563
▁procedures	-3564
mer	-3565
well	-3566
▁county	-3567
▁intercon	-3568
▁individuals	-3569
ished	-3570
▁separate	-3571
▁southwest	-3572
▁dayahead	-3573
▁exempt	-3574
▁sto	-3575
▁cs	-3576
anda	-3577
▁yours	-3578
▁coal	-3579
enger	-3580
tml	-3581
▁wants	-3582
▁situation	-3583
▁ski	-3584
▁dynegy	-3585
▁managing	-3586
▁whatever	-3587
▁northwest	-3588
▁discussions	-3589
▁kn	-3590
ming	-3591
overy	-3592
▁di	-3593
▁brad	-3594
ailing	-3595
▁addressee	-3596
▁interesting	-3597
▁thomas	-3598
▁princip	-3599
▁student	-3600
▁governor	-3601
▁sb	-3602
▁roll	-3603
▁audio	-3604
▁panel	-3605
▁moment	-3606
▁mw	-3607
▁teco	-3608
▁beach	-3609
▁shown	-3610
▁percent	-3611
▁procedure	-3612
▁strip	-3613
▁forget	-3614
▁tip	-3615
▁les	-3616
▁ability	-3617
▁associate	-3618
▁lines	-3619
▁enjoyed	-3620
▁protected	-3621
haps	-3622
eo	-3623
keley	-3624
▁shar	-3625
▁technologies	-3626
▁hor	-3627
▁motion	-3628
hel	-3629
▁calls	-3630
ountain	-3631
ata	-3632
aska	-3633
info	-3634
▁ercot	-3635
▁assets	-3636
▁instead	-3637
▁allocation	-3638
▁warrant	-3639
▁associated	-3640
▁speakers	-3641
▁perhaps	-3642
prise	-3643
▁resource	-3644
▁fig	-3645
▁cook	-3646
▁schwab	-3647
▁photo	-3648
▁sponsor	-3649
▁sponsored	-3650
▁came	-3651
▁method	-3652
▁acrob	-3653
▁traded	-3654
▁unleaded	-3655
online	-3656
▁hourly	-3657
▁administrator	-3658
▁similar	-3659
▁portland	-3660
▁prel	-3661
▁boston	-3662
▁acrobat	-3663
ici	-3664
respond	-3665
ene	-3666
gic	-3667
▁sac	-3668
▁ways	-3669
af	-3670
▁whe	-3671
▁deadline	-3672
days	-3673
gers	-3674
▁boo	-3675
▁anyway	-3676
▁valley	-3677
▁disseminate	-3678
28	-3679
ords	-3680
▁actual	-3681
ault	-3682
ten	-3683
▁equip	-3684
▁pictures	-3685
▁pu	-3686
▁affairs	-3687
▁acknowledge	-3688
▁leader	-3689
▁zone	-3690
▁photos	-3691
▁wil	-3692
▁encl	-3693
▁ws	-3694
▁requires	-3695
▁decisions	-3696
▁newscast	-3697
aging	-3698
▁ron	-3699
▁award	-3700
▁pages	-3701
▁managers	-3702
▁entertainment	-3703
akes	-3704
ese	-3705
▁submit	-3706
▁election	-3707
date	-3708
rick	-3709
▁fit	-3710
▁grant	-3711
▁treat	-3712
aminski	-3713
▁vs	-3714
ok	-3715
work	-3716
▁bay	-3717
▁sleuth	-3718
▁os	-3719
▁loan	-3720
▁virt	-3721
▁entities	-3722
▁institute	-3723
▁players	-3724
▁corn	-3725
▁generators	-3726
set	-3727
path	-3728
bu	-3729
trans	-3730
▁magaz	-3731
▁correspond	-3732
aff	-3733
▁smo	-3734
▁happens	-3735
▁compliance	-3736
▁hr	-3737
▁simple	-3738
▁exciting	-3739
▁jr	-3740
▁demo	-3741
▁license	-3742
▁rt	-3743
▁tour	-3744
▁graph	-3745
▁atte	-3746
▁living	-3747
▁angeles	-3748
▁speaker	-3749
▁handling	-3750
band	-3751
dament	-3752
don	-3753
▁ones	-3754
▁diego	-3755
▁optim	-3756
arc	-3757
▁cat	-3758
▁picture	-3759
▁authority	-3760
▁fundament	-3761
▁strategies	-3762
▁role	-3763
▁speed	-3764
▁compaq	-3765
▁records	-3766
▁shipped	-3767
▁cc	-3768
ody	-3769
▁eval	-3770
▁alumn	-3771
▁subst	-3772
pective	-3773
enc	-3774
▁expert	-3775
▁reliant	-3776
▁amendment	-3777
▁server	-3778
pecially	-3779
changes	-3780
▁stra	-3781
icient	-3782
▁mailings	-3783
▁progress	-3784
▁linda	-3785
▁arrive	-3786
▁conv	-3787
▁execution	-3788
▁uk	-3789
▁hotels	-3790
▁nation	-3791
cra	-3792
▁convenience	-3793
▁concur	-3794
▁airport	-3795
▁facilities	-3796
zy	-3797
▁ie	-3798
▁table	-3799
▁sector	-3800
▁example	-3801
▁flights	-3802
▁prelimin	-3803
▁approximately	-3804
usion	-3805
▁fant	-3806
▁inside	-3807
▁regional	-3808
▁transportation	-3809
▁berkeley	-3810
▁maintain	-3811
▁pleased	-3812
▁jap	-3813
arily	-3814
price	-3815
▁aware	-3816
▁broch	-3817
ables	-3818
zone	-3819
acker	-3820
ald	-3821
▁ath	-3822
▁answers	-3823
▁hesitate	-3824
▁earth	-3825
▁produce	-3826
ky	-3827
▁loss	-3828
▁worked	-3829
▁solution	-3830
▁vict	-3831
▁counter	-3832
▁applications	-3833
▁implementation	-3834
▁preliminary	-3835
ette	-3836
▁human	-3837
ado	-3838
▁jason	-3839
uced	-3840
▁snow	-3841
▁folder	-3842
▁licensed	-3843
▁suggested	-3844
iction	-3845
▁serve	-3846
▁payments	-3847
▁newsletters	-3848
▁clar	-3849
▁mort	-3850
▁hopef	-3851
▁input	-3852
usiness	-3853
▁almost	-3854
rel	-3855
▁rem	-3856
riptions	-3857
▁sellers	-3858
▁ee	-3859
going	-3860
▁forms	-3861
▁european	-3862
▁penn	-3863
▁ele	-3864
▁responses	-3865
▁grand	-3866
▁especially	-3867
▁subsidiaries	-3868
▁ic	-3869
▁wpd	-3870
▁comes	-3871
vp	-3872
▁took	-3873
▁apolog	-3874
▁useful	-3875
▁mel	-3876
▁exact	-3877
▁volat	-3878
▁busy	-3879
▁gulf	-3880
erscom	-3881
▁quite	-3882
▁anywhere	-3883
fast	-3884
ached	-3885
▁double	-3886
▁environmental	-3887
key	-3888
▁screen	-3889
▁difference	-3890
▁dollar	-3891
▁alumni	-3892
▁formal	-3893
aker	-3894
▁bab	-3895
▁jon	-3896
▁goes	-3897
gent	-3898
▁excel	-3899
▁subscribers	-3900
▁asset	-3901
▁beaut	-3902
▁behind	-3903
▁nights	-3904
▁seg	-3905
▁motley	-3906
gage	-3907
▁glad	-3908
▁congr	-3909
▁relev	-3910
▁martin	-3911
▁campbell	-3912
▁nd	-3913
▁theyre	-3914
▁education	-3915
▁litigation	-3916
ov	-3917
▁cnn	-3918
standing	-3919
▁venture	-3920
ob	-3921
reek	-3922
anne	-3923
▁practice	-3924
▁ir	-3925
▁designed	-3926
▁kaminski	-3927
▁img	-3928
▁rat	-3929
▁downt	-3930
▁billing	-3931
▁collection	-3932
▁jane	-3933
bor	-3934
▁ash	-3935
▁circ	-3936
gn	-3937
▁arbit	-3938
▁chart	-3939
▁japan	-3940
▁barb	-3941
ground	-3942
▁unl	-3943
▁vot	-3944
▁sounds	-3945
▁none	-3946
▁persons	-3947
▁profits	-3948
used	-3949
▁assu	-3950
▁filings	-3951
ville	-3952
iries	-3953
▁sara	-3954
▁enroll	-3955
▁mt	-3956
client	-3957
▁login	-3958
▁critical	-3959
▁buycom	-3960
hs	-3961
▁az	-3962
▁ult	-3963
▁gain	-3964
▁tco	-3965
▁equipment	-3966
ha	-3967
▁outages	-3968
nie	-3969
▁bowl	-3970
▁discover	-3971
▁recommendation	-3972
▁wacker	-3973
▁consist	-3974
▁ran	-3975
▁rand	-3976
▁administration	-3977
▁strategic	-3978
▁hp	-3979
▁sher	-3980
▁emazing	-3981
sey	-3982
emon	-3983
resh	-3984
wire	-3985
▁cases	-3986
▁automatically	-3987
▁ds	-3988
▁mir	-3989
▁drop	-3990
▁appears	-3991
aged	-3992
ories	-3993
▁entered	-3994
▁leaving	-3995
▁profession	-3996
▁advertisement	-3997
yl	-3998
▁returnpath	-3999
▁nav	-4000
side	-4001
▁grid	-4002
▁settings	-4003
wal	-4004
▁avoid	-4005
▁competitive	-4006
▁fully	-4007
▁mobile	-4008
▁publication	-4009
▁attorneyclient	-4010
trip	-4011
▁food	-4012
▁reviewed	-4013
sing	-4014
▁spir	-4015
▁brand	-4016
▁easier	-4017
▁brochure	-4018
▁lisa	-4019
bean	-4020
east	-4021
ived	-4022
▁saw	-4023
▁cove	-4024
▁primary	-4025
▁worldwide	-4026
▁throughout	-4027
▁description	-4028
eting	-4029
▁topic	-4030
▁squ	-4031
▁leve	-4032
nov	-4033
▁swap	-4034
▁kat	-4035
▁whom	-4036
▁launch	-4037
▁activity	-4038
▁messageid	-4039
atic	-4040
▁dur	-4041
ga	-4042
▁fell	-4043
▁gard	-4044
ermine	-4045
body	-4046
pped	-4047
▁verify	-4048
▁breakfast	-4049
▁lu	-4050
elly	-4051
▁rout	-4052
▁decided	-4053
▁professor	-4054
▁alternative	-4055
imate	-4056
▁consolid	-4057
ology	-4058
▁jenn	-4059
▁young	-4060
▁extension	-4061
▁ado	-4062
▁cab	-4063
mento	-4064
▁kath	-4065
▁barg	-4066
mailaolcom	-4067
▁determine	-4068
ena	-4069
ios	-4070
▁intell	-4071
▁printed	-4072
asy	-4073
heat	-4074
▁rac	-4075
abeth	-4076
▁cold	-4077
fam	-4078
▁compl	-4079
add	-4080
▁reading	-4081
▁offices	-4082
▁inquiries	-4083
▁interactive	-4084
▁revisions	-4085
29	-4086
fts	-4087
▁om	-4088
iring	-4089
▁often	-4090
▁roundtrip	-4091
▁eps	-4092
▁mmbtu	-4093
▁signature	-4094
▁helpful	-4095
▁informed	-4096
▁ep	-4097
icks	-4098
▁eta	-4099
▁oak	-4100
▁sept	-4101
▁unfor	-4102
isation	-4103
▁gasheat	-4104
▁replace	-4105
▁apologize	-4106
▁colleagues	-4107
rast	-4108
igned	-4109
▁guests	-4110
▁invoice	-4111
▁onepass	-4112
▁announced	-4113
▁automated	-4114
code	-4115
▁identify	-4116
▁nominated	-4117
▁restrictions	-4118
▁ces	-4119
▁extre	-4120
▁spoke	-4121
▁myself	-4122
▁insight	-4123
elled	-4124
▁piras	-4125
class	-4126
▁eliz	-4127
▁sort	-4128
▁recru	-4129
▁denver	-4130
▁anderson	-4131
▁relevant	-4132
▁purchased	-4133
down	-4134
▁lee	-4135
works	-4136
▁marked	-4137
▁preferred	-4138
lu	-4139
▁warm	-4140
▁enerfax	-4141
▁renew	-4142
▁privileges	-4143
des	-4144
low	-4145
rary	-4146
room	-4147
▁ach	-4148
▁satis	-4149
▁adobe	-4150
▁virus	-4151
▁participating	-4152
▁elig	-4153
▁teach	-4154
▁maximum	-4155
ogn	-4156
▁rice	-4157
▁latin	-4158
▁multip	-4159
▁trader	-4160
▁standards	-4161
tc	-4162
▁served	-4163
tex	-4164
▁jay	-4165
▁icap	-4166
adv	-4167
▁marc	-4168
▁gives	-4169
▁river	-4170
ife	-4171
▁hopefully	-4172
▁tren	-4173
mption	-4174
▁lawyer	-4175
▁quoted	-4176
▁affiliate	-4177
rc	-4178
ends	-4179
▁doug	-4180
emazing	-4181
ped	-4182
▁dro	-4183
▁rlyy	-4184
▁permission	-4185
uly	-4186
▁face	-4187
▁recogn	-4188
▁dj	-4189
▁msg	-4190
ption	-4191
▁travelocitycom	-4192
▁rap	-4193
bridge	-4194
ineweb	-4195
▁username	-4196
▁russ	-4197
▁assessment	-4198
zz	-4199
▁lots	-4200
▁mont	-4201
▁schedules	-4202
▁transmitted	-4203
▁ord	-4204
ulations	-4205
▁explain	-4206
▁attending	-4207
▁competition	-4208
▁ol	-4209
heet	-4210
▁lau	-4211
▁bids	-4212
▁levels	-4213
▁andy	-4214
▁magazine	-4215
▁ham	-4216
▁score	-4217
▁airline	-4218
▁elizabeth	-4219
▁suff	-4220
▁domin	-4221
▁contacts	-4222
▁statements	-4223
▁lad	-4224
elines	-4225
▁andrew	-4226
▁modify	-4227
▁talked	-4228
▁essential	-4229
▁developing	-4230
▁processing	-4231
▁steps	-4232
tpm	-4233
▁wit	-4234
night	-4235
▁susp	-4236
▁style	-4237
▁prepare	-4238
ope	-4239
oods	-4240
▁ubs	-4241
▁carib	-4242
ival	-4243
▁gal	-4244
▁safe	-4245
▁stri	-4246
▁celeb	-4247
▁henry	-4248
▁congrat	-4249
▁addressees	-4250
isc	-4251
▁matt	-4252
▁conversation	-4253
▁sacra	-4254
▁excell	-4255
ola	-4256
cd	-4257
▁ded	-4258
ufact	-4259
▁comfor	-4260
▁anticip	-4261
▁ebay	-4262
inewebber	-4263
reat	-4264
▁storm	-4265
erenced	-4266
▁poll	-4267
▁campa	-4268
▁reserving	-4269
▁advertising	-4270
▁sci	-4271
▁courses	-4272
▁income	-4273
▁reporting	-4274
aur	-4275
igan	-4276
▁marketplace	-4277
▁dar	-4278
▁lists	-4279
▁sacramento	-4280
▁requirement	-4281
cape	-4282
reet	-4283
▁guy	-4284
▁balance	-4285
▁julie	-4286
▁mountain	-4287
▁wonderful	-4288
▁representatives	-4289
▁hawai	-4290
▁moved	-4291
▁analy	-4292
▁reduce	-4293
▁reasons	-4294
▁pas	-4295
▁caribbean	-4296
▁clearstation	-4297
▁reached	-4298
▁kr	-4299
▁sense	-4300
igations	-4301
▁campaign	-4302
vc	-4303
▁entry	-4304
▁invited	-4305
pects	-4306
▁combined	-4307
▁announcement	-4308
▁risks	-4309
unk	-4310
▁mur	-4311
lined	-4312
▁ngpl	-4313
eng	-4314
▁iep	-4315
▁fire	-4316
▁popular	-4317
aks	-4318
crow	-4319
icle	-4320
istics	-4321
▁units	-4322
ades	-4323
▁disclaim	-4324
▁pdf	-4325
▁sho	-4326
▁perm	-4327
▁sweep	-4328
▁letters	-4329
▁sessions	-4330
▁interests	-4331
▁interviews	-4332
casts	-4333
▁rsvp	-4334
▁seat	-4335
▁wrap	-4336
▁absol	-4337
▁downtown	-4338
▁graduate	-4339
dd	-4340
▁matters	-4341
▁provider	-4342
▁legislation	-4343
mates	-4344
▁petro	-4345
▁stage	-4346
▁consideration	-4347
▁fon	-4348
▁ses	-4349
▁pending	-4350
▁resched	-4351
▁children	-4352
oud	-4353
▁heav	-4354
▁heart	-4355
▁visiting	-4356
ste	-4357
zes	-4358
aste	-4359
▁buil	-4360
▁investments	-4361
▁ba	-4362
▁wt	-4363
year	-4364
▁cause	-4365
oration	-4366
▁category	-4367
▁bed	-4368
▁bru	-4369
▁chann	-4370
▁proper	-4371
tunately	-4372
▁provisions	-4373
▁created	-4374
▁sponsors	-4375
▁direction	-4376
isb	-4377
cial	-4378
▁beat	-4379
▁vari	-4380
▁winds	-4381
▁interconnect	-4382
amb	-4383
abil	-4384
▁occasion	-4385
▁challenge	-4386
leg	-4387
▁adam	-4388
▁gave	-4389
▁lose	-4390
▁manufact	-4391
▁candidates	-4392
erald	-4393
▁overview	-4394
▁directions	-4395
▁recommendations	-4396
men	-4397
▁mal	-4398
▁johnson	-4399
▁outstanding	-4400
▁bag	-4401
▁leadership	-4402
ured	-4403
▁nys	-4404
▁core	-4405
▁cities	-4406
▁americas	-4407
▁economics	-4408
▁alb	-4409
▁logo	-4410
▁ward	-4411
▁wishes	-4412
▁si	-4413
oices	-4414
▁delet	-4415
▁passed	-4416
▁terminal	-4417
▁cambridge	-4418
▁commitment	-4419
▁fundamentals	-4420
essee	-4421
version	-4422
▁intention	-4423
que	-4424
▁forgot	-4425
ded	-4426
you	-4427
▁duke	-4428
weight	-4429
▁deposit	-4430
ulty	-4431
▁encourage	-4432
▁nt	-4433
▁lex	-4434
family	-4435
cipient	-4436
itional	-4437
▁morgan	-4438
▁enclosed	-4439
▁weekdays	-4440
▁prevailing	-4441
jo	-4442
ym	-4443
▁chap	-4444
▁ground	-4445
▁experts	-4446
▁professionals	-4447
▁react	-4448
▁accounting	-4449
dom	-4450
▁miam	-4451
▁erd	-4452
chron	-4453
▁bask	-4454
▁door	-4455
▁placed	-4456
▁stores	-4457
▁tamtpm	-4458
oam	-4459
▁yo	-4460
file	-4461
▁nic	-4462
▁sweet	-4463
list	-4464
▁ray	-4465
▁reception	-4466
▁meg	-4467
▁birthday	-4468
▁employment	-4469
sm	-4470
▁airf	-4471
▁imag	-4472
▁achie	-4473
▁owner	-4474
▁analysts	-4475
▁maint	-4476
▁column	-4477
▁priority	-4478
▁responsibility	-4479
ama	-4480
▁limits	-4481
bc	-4482
▁saf	-4483
▁karen	-4484
▁block	-4485
▁border	-4486
hy	-4487
▁neal	-4488
▁task	-4489
▁stated	-4490
▁contest	-4491
26	-4492
▁ry	-4493
▁slow	-4494
▁alaska	-4495
▁accepted	-4496
ining	-4497
▁sont	-4498
▁rental	-4499
▁actuals	-4500
▁default	-4501
inter	-4502
commit	-4503
▁upgrade	-4504
coding	-4505
▁parag	-4506
▁agency	-4507
▁merchant	-4508
▁volatility	-4509
▁political	-4510
▁asap	-4511
street	-4512
▁toward	-4513
▁obligation	-4514
ns	-4515
▁lock	-4516
▁easily	-4517
▁skills	-4518
▁covered	-4519
▁distance	-4520
gree	-4521
vich	-4522
▁wild	-4523
holder	-4524
▁repro	-4525
▁daniel	-4526
▁gerald	-4527
▁ss	-4528
▁edt	-4529
▁huge	-4530
▁dereg	-4531
▁fonts	-4532
▁organizations	-4533
enses	-4534
▁draw	-4535
▁spirit	-4536
▁mailbox	-4537
een	-4538
rew	-4539
▁hom	-4540
▁rom	-4541
clear	-4542
ateral	-4543
▁stream	-4544
▁valued	-4545
▁library	-4546
▁mainten	-4547
▁background	-4548
▁promotions	-4549
▁sce	-4550
▁isnt	-4551
▁pray	-4552
▁shap	-4553
▁incred	-4554
▁willing	-4555
▁matchcom	-4556
point	-4557
▁alex	-4558
▁commerce	-4559
▁consumer	-4560
▁presented	-4561
▁son	-4562
▁miami	-4563
▁complex	-4564
▁faculty	-4565
▁warning	-4566
▁modified	-4567
ake	-4568
outs	-4569
▁oopm	-4570
▁bear	-4571
▁guid	-4572
urch	-4573
▁dun	-4574
cious	-4575
▁braz	-4576
▁women	-4577
▁asking	-4578
▁operator	-4579
ague	-4580
ucing	-4581
ounter	-4582
▁reward	-4583
▁restaur	-4584
▁volun	-4585
▁directed	-4586
▁vp	-4587
▁described	-4588
▁communicate	-4589
bf	-4590
▁ct	-4591
▁ing	-4592
▁suit	-4593
▁intel	-4594
▁display	-4595
▁continues	-4596
▁promotion	-4597
ila	-4598
▁fel	-4599
▁tet	-4600
▁subcommit	-4601
▁cin	-4602
▁amer	-4603
▁picks	-4604
▁tried	-4605
▁greater	-4606
▁helping	-4607
▁accuracy	-4608
▁painewebber	-4609
▁gb	-4610
asis	-4611
vious	-4612
▁marri	-4613
▁types	-4614
▁transco	-4615
kt	-4616
▁epm	-4617
iance	-4618
▁miller	-4619
▁platts	-4620
▁texans	-4621
▁values	-4622
▁maintenance	-4623
cop	-4624
▁lake	-4625
▁anytime	-4626
▁featured	-4627
▁consultant	-4628
ati	-4629
sub	-4630
enty	-4631
ently	-4632
▁palo	-4633
▁rain	-4634
▁bruce	-4635
▁estate	-4636
▁hotmail	-4637
eys	-4638
▁ect	-4639
▁lease	-4640
▁classes	-4641
▁holding	-4642
▁measure	-4643
▁developments	-4644
▁spent	-4645
▁highly	-4646
▁warranties	-4647
▁mix	-4648
▁settle	-4649
▁congratulations	-4650
▁merc	-4651
▁exerc	-4652
holders	-4653
▁constit	-4654
▁longterm	-4655
▁positive	-4656
▁regulated	-4657
▁disclaimer	-4658
▁commissioner	-4659
etime	-4660
▁appe	-4661
▁meant	-4662
▁domain	-4663
▁hawaii	-4664
▁calpine	-4665
▁segment	-4666
▁advanced	-4667
▁joseph	-4668
▁possib	-4669
▁turbine	-4670
▁financing	-4671
▁represents	-4672
▁sportsline	-4673
▁perspective	-4674
▁promotional	-4675
olt	-4676
ifer	-4677
▁common	-4678
▁attempt	-4679
▁released	-4680
▁paragraph	-4681
ancing	-4682
▁champ	-4683
asovich	-4684
▁carolyn	-4685
▁obvious	-4686
▁powerful	-4687
▁protection	-4688
ograph	-4689
▁decide	-4690
▁amendments	-4691
▁cdt	-4692
▁spr	-4693
estic	-4694
lanta	-4695
party	-4696
▁patt	-4697
▁fantasy	-4698
▁nfl	-4699
▁hands	-4700
▁howard	-4701
▁middle	-4702
▁biggest	-4703
▁unfortunately	-4704
▁ly	-4705
▁hund	-4706
▁known	-4707
▁wrong	-4708
▁window	-4709
▁eligible	-4710
▁boy	-4711
▁innov	-4712
▁exclud	-4713
▁liable	-4714
▁overall	-4715
▁shortly	-4716
▁speaking	-4717
▁destination	-4718
lie	-4719
board	-4720
▁ends	-4721
▁reass	-4722
▁gather	-4723
▁clou	-4724
▁nerc	-4725
▁shut	-4726
▁consu	-4727
▁adjustment	-4728
nel	-4729
ordad	-4730
▁itiner	-4731
▁awordad	-4732
▁foreign	-4733
▁proceeding	-4734
sa	-4735
▁kin	-4736
craft	-4737
▁broadband	-4738
▁avg	-4739
▁mut	-4740
▁pst	-4741
▁van	-4742
ender	-4743
▁expans	-4744
win	-4745
▁doub	-4746
▁continued	-4747
▁intelligence	-4748
osp	-4749
rug	-4750
▁pred	-4751
▁iferc	-4752
▁infrast	-4753
▁ye	-4754
oring	-4755
▁distill	-4756
▁premium	-4757
jun	-4758
▁sem	-4759
▁burn	-4760
▁suppli	-4761
ination	-4762
▁industries	-4763
▁termination	-4764
▁delta	-4765
itz	-4766
▁arng	-4767
▁chat	-4768
▁mass	-4769
▁seats	-4770
gar	-4771
▁mcn	-4772
▁neg	-4773
▁argu	-4774
▁gone	-4775
▁craig	-4776
▁refund	-4777
▁exhibits	-4778
▁headlines	-4779
▁commissions	-4780
aha	-4781
▁pg	-4782
andum	-4783
click	-4784
▁gall	-4785
▁amended	-4786
▁partnership	-4787
dra	-4788
van	-4789
ural	-4790
▁radio	-4791
▁acquis	-4792
▁marketers	-4793
wer	-4794
▁va	-4795
▁compar	-4796
▁beautif	-4797
▁md	-4798
▁path	-4799
▁fontfamily	-4800
sp	-4801
inum	-4802
▁fuels	-4803
▁playing	-4804
▁classmates	-4805
▁nes	-4806
▁sar	-4807
▁deep	-4808
energy	-4809
▁nancy	-4810
▁pressure	-4811
▁memorandum	-4812
▁bp	-4813
▁diam	-4814
▁casino	-4815
▁socalgas	-4816
▁estimates	-4817
▁excellent	-4818
▁convenient	-4819
gus	-4820
▁attract	-4821
ocol	-4822
rier	-4823
▁ave	-4824
▁wheel	-4825
▁handle	-4826
▁prompt	-4827
▁choosing	-4828
▁kar	-4829
▁mad	-4830
▁movie	-4831
▁atlanta	-4832
▁senator	-4833
▁operation	-4834
▁walk	-4835
elling	-4836
▁carry	-4837
▁camera	-4838
▁congest	-4839
sth	-4840
▁ene	-4841
▁jac	-4842
▁mou	-4843
▁auctions	-4844
▁frequent	-4845
▁pursuant	-4846
▁trademark	-4847
▁enterprise	-4848
za	-4849
mar	-4850
▁actions	-4851
▁internal	-4852
peak	-4853
week	-4854
▁mph	-4855
feren	-4856
▁coach	-4857
▁lowest	-4858
▁planned	-4859
▁fontsize	-4860
see	-4861
ples	-4862
▁baby	-4863
▁pull	-4864
▁sleep	-4865
▁histor	-4866
▁rebate	-4867
▁saying	-4868
mxaolcom	-4869
▁hedging	-4870
▁changing	-4871
power	-4872
itting	-4873
▁catal	-4874
▁awordaday	-4875
cer	-4876
▁wol	-4877
▁auto	-4878
▁testing	-4879
▁domestic	-4880
▁map	-4881
▁images	-4882
▁distribute	-4883
▁monitoring	-4884
▁cooperation	-4885
▁documentation	-4886
nell	-4887
▁dut	-4888
▁dyn	-4889
▁visa	-4890
▁bless	-4891
▁neigh	-4892
▁pager	-4893
▁mortgage	-4894
augh	-4895
char	-4896
▁kitch	-4897
▁presentations	-4898
bi	-4899
anks	-4900
▁eye	-4901
▁mck	-4902
▁furn	-4903
direct	-4904
▁teams	-4905
▁countries	-4906
▁distillate	-4907
▁ari	-4908
▁setting	-4909
▁executives	-4910
▁ox	-4911
▁max	-4912
▁sup	-4913
▁beta	-4914
▁extrem	-4915
▁enhance	-4916
▁seattle	-4917
▁constant	-4918
▁multiple	-4919
▁congestion	-4920
▁advisor	-4921
▁dasovich	-4922
onds	-4923
▁sample	-4924
▁insider	-4925
▁northern	-4926
▁candidate	-4927
▁highlights	-4928
may	-4929
▁curren	-4930
▁heating	-4931
▁producers	-4932
bb	-4933
onst	-4934
▁wide	-4935
▁fresh	-4936
▁escrow	-4937
▁qualify	-4938
▁versions	-4939
▁engineering	-4940
▁specifically	-4941
corp	-4942
▁canad	-4943
▁assume	-4944
▁liability	-4945
corn	-4946
force	-4947
▁officer	-4948
▁synchron	-4949
▁nominations	-4950
ea	-4951
thec	-4952
itted	-4953
▁asia	-4954
▁invent	-4955
▁appoint	-4956
▁networks	-4957
▁attorneys	-4958
eb	-4959
▁uc	-4960
itol	-4961
▁ice	-4962
▁terror	-4963
▁confident	-4964
▁xls	-4965
▁anth	-4966
▁html	-4967
▁relative	-4968
▁expediacom	-4969
▁incorporated	-4970
irt	-4971
▁rig	-4972
▁gray	-4973
▁learning	-4974
▁hang	-4975
▁talks	-4976
▁bil	-4977
▁sco	-4978
itude	-4979
▁gisb	-4980
▁santa	-4981
sequent	-4982
▁learned	-4983
▁designated	-4984
▁certificates	-4985
link	-4986
▁cdnow	-4987
▁jerry	-4988
▁kelly	-4989
▁elimin	-4990
▁jeffrey	-4991
▁subcommittee	-4992
▁ip	-4993
vest	-4994
▁democr	-4995
▁kitchen	-4996
▁expansion	-4997
▁referenced	-4998
fall	-4999
▁dil	-5000
ament	-5001
state	-5002
▁fercs	-5003
▁reduction	-5004
met	-5005
mart	-5006
fully	-5007
ields	-5008
▁peak	-5009
▁tent	-5010
▁phill	-5011
▁basket	-5012
▁proposals	-5013
▁completely	-5014
▁exclusively	-5015
sc	-5016
▁exactly	-5017
▁duration	-5018
▁substant	-5019
▁integrity	-5020
▁infrastructure	-5021
fa	-5022
sec	-5023
▁cla	-5024
▁sbx	-5025
▁band	-5026
▁goal	-5027
▁self	-5028
▁nysrc	-5029
▁corner	-5030
inger	-5031
▁insp	-5032
▁thus	-5033
adem	-5034
▁dam	-5035
▁gore	-5036
▁juan	-5037
▁incredible	-5038
▁growing	-5039
ferencoding	-5040
▁publications	-5041
held	-5042
▁bey	-5043
antic	-5044
▁tetco	-5045
▁nations	-5046
▁science	-5047
▁valuation	-5048
▁reassigned	-5049
▁californias	-5050
rill	-5051
▁frame	-5052
▁timely	-5053
▁allowed	-5054
▁beautiful	-5055
▁extremely	-5056
▁operational	-5057
transferencoding	-5058
▁enable	-5059
▁itself	-5060
▁portion	-5061
▁eastrans	-5062
iest	-5063
▁err	-5064
▁harris	-5065
▁replying	-5066
▁certainly	-5067
▁discounts	-5068
utely	-5069
▁hpln	-5070
▁degree	-5071
▁heading	-5072
comp	-5073
▁rooms	-5074
▁subpo	-5075
▁bought	-5076
▁privilege	-5077
▁od	-5078
▁caps	-5079
▁pain	-5080
icated	-5081
moneym	-5082
▁vt	-5083
▁bond	-5084
▁thru	-5085
▁generator	-5086
▁cm	-5087
avor	-5088
▁moder	-5089
▁barbara	-5090
▁keeping	-5091
▁apparent	-5092
ita	-5093
▁aes	-5094
▁crow	-5095
stakes	-5096
▁beyond	-5097
▁prizes	-5098
▁resolution	-5099
▁tail	-5100
▁retrie	-5101
astic	-5102
▁removal	-5103
▁aircraft	-5104
▁continuing	-5105
▁mm	-5106
▁truly	-5107
▁petition	-5108
ofth	-5109
▁dream	-5110
▁excited	-5111
▁legislative	-5112
live	-5113
ander	-5114
▁academ	-5115
▁reform	-5116
▁reduced	-5117
master	-5118
natural	-5119
olution	-5120
▁nature	-5121
▁recall	-5122
▁cameron	-5123
▁jennifer	-5124
chan	-5125
ences	-5126
▁wolf	-5127
▁commentary	-5128
▁fontweight	-5129
uled	-5130
▁fer	-5131
▁cable	-5132
streetcom	-5133
▁developed	-5134
▁businesses	-5135
hot	-5136
▁ow	-5137
with	-5138
▁pil	-5139
▁mile	-5140
▁conte	-5141
▁harry	-5142
▁theme	-5143
uit	-5144
anna	-5145
uris	-5146
▁aim	-5147
▁fren	-5148
▁laura	-5149
▁expand	-5150
▁stanley	-5151
▁witness	-5152
▁appreciated	-5153
▁eopm	-5154
▁penal	-5155
tailment	-5156
▁refined	-5157
▁preference	-5158
lst	-5159
▁eth	-5160
▁pieces	-5161
▁applied	-5162
▁showing	-5163
▁identified	-5164
▁tempor	-5165
▁clearly	-5166
▁reserves	-5167
opt	-5168
▁usd	-5169
▁austral	-5170
▁emailing	-5171
▁supplies	-5172
▁increasing	-5173
ngth	-5174
water	-5175
▁shell	-5176
▁sf	-5177
inson	-5178
iciency	-5179
▁perman	-5180
▁absolutely	-5181
▁wo	-5182
▁maps	-5183
▁transc	-5184
▁strength	-5185
▁practices	-5186
▁foundation	-5187
leum	-5188
▁ger	-5189
▁pin	-5190
▁expires	-5191
▁recommended	-5192
mars	-5193
rison	-5194
▁mage	-5195
▁math	-5196
▁approve	-5197
▁currency	-5198
▁atl	-5199
▁missed	-5200
▁amazing	-5201
▁nuclear	-5202
▁studies	-5203
▁obligations	-5204
▁sweepstakes	-5205
▁kt	-5206
▁estimated	-5207
vie	-5208
▁uses	-5209
market	-5210
▁piece	-5211
commerce	-5212
▁putting	-5213
▁cashhouect	-5214
▁cu	-5215
reds	-5216
▁isos	-5217
infocom	-5218
vol	-5219
▁roy	-5220
▁usually	-5221
▁locations	-5222
▁inj	-5223
▁str	-5224
▁veh	-5225
▁lynch	-5226
▁withdra	-5227
▁ko	-5228
▁sth	-5229
field	-5230
lands	-5231
regon	-5232
▁sens	-5233
▁allen	-5234
elves	-5235
▁overs	-5236
▁polit	-5237
▁papers	-5238
▁resort	-5239
▁titles	-5240
▁seminars	-5241
▁cloudy	-5242
▁social	-5243
▁automatic	-5244
▁deliveries	-5245
▁imageimageimage	-5246
▁menu	-5247
▁prize	-5248
▁oregon	-5249
▁rod	-5250
▁closed	-5251
networks	-5252
▁century	-5253
▁ongoing	-5254
▁deregulation	-5255
▁dv	-5256
▁ees	-5257
▁charact	-5258
▁committed	-5259
▁realnetworks	-5260
fit	-5261
▁mun	-5262
▁ros	-5263
▁mach	-5264
▁allows	-5265
▁english	-5266
▁greatly	-5267
▁hundreds	-5268
▁governors	-5269
▁northeast	-5270
▁providers	-5271
▁fis	-5272
▁txu	-5273
▁noted	-5274
livecom	-5275
▁impress	-5276
▁petroleum	-5277
▁reproduction	-5278
▁representations	-5279
fs	-5280
uns	-5281
times	-5282
▁beth	-5283
▁rose	-5284
arents	-5285
▁dated	-5286
▁ebusiness	-5287
pres	-5288
▁eve	-5289
▁bird	-5290
▁entit	-5291
▁policies	-5292
▁cds	-5293
stream	-5294
▁browse	-5295
▁steven	-5296
▁bringing	-5297
▁established	-5298
oa	-5299
ona	-5300
pper	-5301
▁gate	-5302
▁hubs	-5303
▁telex	-5304
▁inquire	-5305
thecounter	-5306
99	-5307
izes	-5308
▁cot	-5309
▁carl	-5310
▁estimate	-5311
▁synchronizing	-5312
ternal	-5313
▁drafts	-5314
▁permit	-5315
conference	-5316
▁celebrate	-5317
▁increased	-5318
▁conferences	-5319
▁trends	-5320
emazingcom	-5321
bra	-5322
ros	-5323
▁fle	-5324
shore	-5325
▁fight	-5326
▁wedding	-5327
xy	-5328
▁abc	-5329
▁anc	-5330
▁coupon	-5331
▁missing	-5332
▁winning	-5333
▁obviously	-5334
▁personnel	-5335
▁personalized	-5336
▁hq	-5337
▁cbs	-5338
▁meas	-5339
osition	-5340
▁movies	-5341
▁considering	-5342
▁rd	-5343
▁sop	-5344
ening	-5345
advert	-5346
▁brent	-5347
▁creek	-5348
▁raise	-5349
▁thems	-5350
aration	-5351
▁hyd	-5352
eller	-5353
▁kick	-5354
▁arial	-5355
▁partial	-5356
▁checking	-5357
▁amy	-5358
▁recip	-5359
▁entergy	-5360
▁ecommerce	-5361
▁principal	-5362
▁accordance	-5363
ards	-5364
iques	-5365
▁island	-5366
▁messenger	-5367
▁neither	-5368
▁district	-5369
▁moo	-5370
▁tun	-5371
▁anch	-5372
▁nyse	-5373
▁faith	-5374
▁kathy	-5375
▁peace	-5376
▁pleasure	-5377
▁investigation	-5378
▁flag	-5379
▁indexes	-5380
▁smoking	-5381
▁extended	-5382
▁themselves	-5383
▁pdt	-5384
ersen	-5385
▁ital	-5386
▁tourn	-5387
▁raised	-5388
▁convention	-5389
▁epmi	-5390
▁shif	-5391
▁stone	-5392
▁cinergy	-5393
▁funding	-5394
▁guaranty	-5395
ooz	-5396
ahou	-5397
imited	-5398
▁dynam	-5399
▁mmbtud	-5400
▁coordinator	-5401
▁spreadsheet	-5402
▁bry	-5403
▁dian	-5404
▁catalog	-5405
▁demonst	-5406
▁moments	-5407
▁briefing	-5408
▁relating	-5409
▁complaint	-5410
▁discovery	-5411
▁occasionally	-5412
dec	-5413
▁sets	-5414
▁krist	-5415
▁excess	-5416
▁figure	-5417
▁channel	-5418
vine	-5419
▁union	-5420
▁models	-5421
▁threat	-5422
▁conserv	-5423
▁handheld	-5424
▁exchanges	-5425
▁experienced	-5426
uf	-5427
ians	-5428
ority	-5429
▁laws	-5430
▁lsth	-5431
▁labor	-5432
▁motor	-5433
journal	-5434
▁compare	-5435
▁skilling	-5436
▁supplement	-5437
anie	-5438
ertz	-5439
▁llth	-5440
marsat	-5441
▁french	-5442
▁inmarsat	-5443
▁kir	-5444
▁bridge	-5445
▁particularly	-5446
▁pron	-5447
▁marks	-5448
▁emailed	-5449
▁lawyers	-5450
▁archives	-5451
npk	-5452
light	-5453
▁ryan	-5454
▁surpr	-5455
▁announcements	-5456
▁extend	-5457
▁summit	-5458
▁function	-5459
▁precious	-5460
fin	-5461
tth	-5462
cker	-5463
rell	-5464
▁germ	-5465
▁pnpk	-5466
▁freed	-5467
▁virtual	-5468
▁worry	-5469
▁league	-5470
▁returns	-5471
hr	-5472
▁provision	-5473
▁determined	-5474
page	-5475
▁chuck	-5476
▁cycle	-5477
▁bargain	-5478
▁parents	-5479
▁networking	-5480
▁destinations	-5481
▁overthecounter	-5482
name	-5483
texas	-5484
▁trav	-5485
▁amerit	-5486
▁virgin	-5487
▁returned	-5488
▁collateral	-5489
▁28	-5490
▁iah	-5491
ading	-5492
▁forwards	-5493
▁greeting	-5494
▁recovery	-5495
eon	-5496
▁neil	-5497
▁negotiated	-5498
orm	-5499
vis	-5500
iver	-5501
koff	-5502
movie	-5503
▁exit	-5504
▁packages	-5505
moneymoney	-5506
fri	-5507
▁sd	-5508
▁rede	-5509
▁began	-5510
▁brain	-5511
▁comed	-5512
▁flash	-5513
▁fools	-5514
▁keith	-5515
▁knows	-5516
▁oasis	-5517
▁presc	-5518
▁swing	-5519
▁shipment	-5520
▁republican	-5521
▁fat	-5522
▁sue	-5523
▁citiz	-5524
▁merger	-5525
▁nearly	-5526
▁alan	-5527
▁campus	-5528
▁downgr	-5529
rest	-5530
what	-5531
▁mac	-5532
iling	-5533
▁sdge	-5534
▁accep	-5535
▁entre	-5536
▁playoff	-5537
▁wolkoff	-5538
abilities	-5539
hood	-5540
▁ade	-5541
▁begins	-5542
▁mechan	-5543
▁silver	-5544
▁mailers	-5545
fr	-5546
htm	-5547
▁pit	-5548
check	-5549
▁schol	-5550
▁accommo	-5551
▁gi	-5552
▁viol	-5553
▁randy	-5554
▁chapter	-5555
▁finding	-5556
▁straight	-5557
▁remaining	-5558
▁awa	-5559
▁hplo	-5560
illing	-5561
▁hurry	-5562
aa	-5563
iced	-5564
▁church	-5565
▁electronics	-5566
▁thestreetcom	-5567
▁dog	-5568
▁tva	-5569
ction	-5570
oline	-5571
▁bonds	-5572
▁cheap	-5573
▁megaw	-5574
▁rapid	-5575
▁boards	-5576
▁finish	-5577
▁canadian	-5578
▁sometime	-5579
▁unlimited	-5580
onven	-5581
iation	-5582
▁weight	-5583
▁challenges	-5584
▁mastercard	-5585
▁subsequent	-5586
▁ak	-5587
▁ign	-5588
ylvan	-5589
▁egre	-5590
▁inch	-5591
▁bound	-5592
▁honor	-5593
▁turned	-5594
▁apparently	-5595
pdf	-5596
▁und	-5597
▁repe	-5598
▁subt	-5599
▁wasnt	-5600
▁completion	-5601
▁consistent	-5602
▁notifications	-5603
▁ib	-5604
▁bulk	-5605
▁seven	-5606
▁reject	-5607
▁broadcast	-5608
▁tennessee	-5609
inn	-5610
oto	-5611
▁capt	-5612
▁nahou	-5613
▁urgent	-5614
▁outline	-5615
▁towards	-5616
wpd	-5617
▁morris	-5618
▁mother	-5619
▁germany	-5620
▁remains	-5621
▁alliance	-5622
▁xversion	-5623
▁tradersnews	-5624
oria	-5625
▁infobe	-5626
▁paying	-5627
▁booking	-5628
▁directory	-5629
▁emissions	-5630
▁sea	-5631
▁ted	-5632
▁bell	-5633
▁fellow	-5634
▁mission	-5635
▁itinerary	-5636
▁energynews	-5637
ilton	-5638
itely	-5639
ivity	-5640
otten	-5641
▁influ	-5642
▁flowers	-5643
▁volunte	-5644
▁ameritrade	-5645
▁circulated	-5646
oma	-5647
ora	-5648
▁alone	-5649
▁underst	-5650
▁sections	-5651
▁phd	-5652
quest	-5653
▁satell	-5654
▁defense	-5655
▁notices	-5656
▁editorial	-5657
can	-5658
osh	-5659
▁funny	-5660
▁mista	-5661
▁bright	-5662
▁conflic	-5663
▁factors	-5664
▁seeking	-5665
▁das	-5666
▁blvd	-5667
eliver	-5668
emonth	-5669
▁girls	-5670
▁nahoums	-5671
▁seriously	-5672
▁forwarding	-5673
wt	-5674
▁lp	-5675
mond	-5676
▁por	-5677
▁ram	-5678
▁denn	-5679
▁sport	-5680
▁hallow	-5681
▁safety	-5682
▁brokerage	-5683
▁downloaded	-5684
▁gs	-5685
▁magn	-5686
▁noun	-5687
▁confidence	-5688
▁furthermore	-5689
illa	-5690
▁dwr	-5691
▁rank	-5692
encies	-5693
sylvan	-5694
▁drink	-5695
▁places	-5696
▁amounts	-5697
▁exposure	-5698
▁external	-5699
▁sometimes	-5700
▁joy	-5701
▁puc	-5702
▁onto	-5703
▁brings	-5704
▁conform	-5705
▁keyword	-5706
▁stephen	-5707
▁gov	-5708
▁followup	-5709
▁spending	-5710
face	-5711
▁gmt	-5712
▁kit	-5713
prene	-5714
▁banks	-5715
▁banking	-5716
▁premier	-5717
▁luncheon	-5718
▁ordering	-5719
ii	-5720
test	-5721
▁dvds	-5722
▁lord	-5723
▁moore	-5724
▁proud	-5725
▁satellite	-5726
▁workshops	-5727
▁adjustments	-5728
ops	-5729
▁ya	-5730
▁edge	-5731
▁fish	-5732
▁desire	-5733
▁airfare	-5734
▁desktop	-5735
▁pennsylvan	-5736
ctor	-5737
under	-5738
urisd	-5739
▁barn	-5740
▁ross	-5741
astings	-5742
▁hoping	-5743
▁collins	-5744
▁christian	-5745
▁satisfact	-5746
ran	-5747
▁mb	-5748
isse	-5749
▁dean	-5750
▁flex	-5751
▁brothers	-5752
▁departure	-5753
▁entreprene	-5754
▁contribution	-5755
▁subscriptions	-5756
icon	-5757
▁tin	-5758
▁hair	-5759
▁nick	-5760
▁seek	-5761
▁weak	-5762
▁command	-5763
▁delivering	-5764
▁egreetings	-5765
note	-5766
▁abx	-5767
▁tony	-5768
▁mutual	-5769
▁slight	-5770
▁advertis	-5771
▁highlight	-5772
▁administrative	-5773
cher	-5774
▁ink	-5775
▁dama	-5776
▁prec	-5777
▁cents	-5778
▁charged	-5779
▁feeling	-5780
▁happened	-5781
▁revision	-5782
▁eat	-5783
files	-5784
▁loth	-5785
ystone	-5786
▁manner	-5787
▁plenty	-5788
▁defined	-5789
▁evidence	-5790
▁realplay	-5791
▁stanford	-5792
▁processed	-5793
▁arrangements	-5794
▁agmt	-5795
▁rating	-5796
▁coupons	-5797
▁followed	-5798
▁possibly	-5799
▁halloween	-5800
▁qualified	-5801
▁wy	-5802
▁awad	-5803
▁looked	-5804
▁valent	-5805
ellation	-5806
▁jackson	-5807
▁occurred	-5808
oen	-5809
rid	-5810
▁uns	-5811
igate	-5812
▁decre	-5813
newscom	-5814
▁cotton	-5815
▁bidding	-5816
▁implied	-5817
bre	-5818
aver	-5819
ened	-5820
mbtu	-5821
▁fif	-5822
stein	-5823
▁bold	-5824
▁forth	-5825
▁techniques	-5826
continentalex	-5827
uts	-5828
▁tot	-5829
▁citib	-5830
▁couldnt	-5831
▁efficient	-5832
▁sportslinecom	-5833
pap	-5834
otal	-5835
▁lack	-5836
▁arent	-5837
▁helps	-5838
▁powered	-5839
▁inconven	-5840
▁computers	-5841
▁passenger	-5842
walk	-5843
▁ela	-5844
▁pic	-5845
▁edis	-5846
▁elli	-5847
▁wscc	-5848
▁maker	-5849
▁driving	-5850
▁generally	-5851
ato	-5852
ills	-5853
▁tor	-5854
▁bible	-5855
▁faster	-5856
▁resident	-5857
▁interrupt	-5858
▁discussing	-5859
▁realplayer	-5860
▁requesting	-5861
erd	-5862
nes	-5863
▁surv	-5864
▁winner	-5865
▁realize	-5866
▁neighbor	-5867
▁attendance	-5868
▁sr	-5869
▁flat	-5870
▁tough	-5871
▁divers	-5872
▁deleted	-5873
▁purchasing	-5874
▁au	-5875
▁alto	-5876
▁readers	-5877
▁<<2	-5878
▁gag	-5879
▁tholt	-5880
▁checks	-5881
▁brother	-5882
▁rewards	-5883
▁reliance	-5884
vard	-5885
ansas	-5886
ichol	-5887
ously	-5888
owned	-5889
quote	-5890
▁alle	-5891
▁sarah	-5892
▁vacations	-5893
ransmission	-5894
▁iv	-5895
▁gap	-5896
aming	-5897
oldoc	-5898
▁beer	-5899
▁dick	-5900
▁owned	-5901
▁preview	-5902
▁seasons	-5903
eech	-5904
▁cia	-5905
▁britt	-5906
▁character	-5907
▁definitely	-5908
▁nationwide	-5909
entalexchange	-5910
▁gro	-5911
inent	-5912
▁dress	-5913
▁offset	-5914
columbia	-5915
▁pennsylvania	-5916
tt	-5917
ipc	-5918
▁gross	-5919
▁hplno	-5920
▁colorado	-5921
▁arrang	-5922
ju	-5923
ship	-5924
▁cri	-5925
▁kur	-5926
opher	-5927
▁scope	-5928
▁slots	-5929
▁concept	-5930
nett	-5931
berry	-5932
▁fred	-5933
▁india	-5934
▁anchor	-5935
▁speech	-5936
▁enforce	-5937
continent	-5938
▁commodities	-5939
adel	-5940
idth	-5941
▁pipe	-5942
▁debate	-5943
▁indepth	-5944
▁gasoline	-5945
▁sellside	-5946
▁registering	-5947
but	-5948
▁eei	-5949
▁esp	-5950
▁obs	-5951
comes	-5952
▁offline	-5953
▁nymexcom	-5954
▁retrieve	-5955
▁extensive	-5956
▁kym	-5957
▁scen	-5958
vision	-5959
▁errors	-5960
▁jurisd	-5961
▁assuming	-5962
▁enrononline	-5963
▁rescheduled	-5964
pping	-5965
▁jers	-5966
▁publishing	-5967
irm	-5968
vet	-5969
▁buys	-5970
▁wife	-5971
mental	-5972
▁eight	-5973
ournals	-5974
▁circum	-5975
▁wondering	-5976
sl	-5977
gue	-5978
▁eoth	-5979
▁goals	-5980
ofthemonth	-5981
▁accordingly	-5982
▁introducing	-5983
tha	-5984
ups	-5985
ivan	-5986
▁eca	-5987
ports	-5988
▁okay	-5989
▁wright	-5990
▁wouldnt	-5991
▁arbitration	-5992
aco	-5993
ota	-5994
away	-5995
▁liz	-5996
▁pul	-5997
berta	-5998
▁girl	-5999
▁patr	-6000
▁zero	-6001
▁apart	-6002
▁famil	-6003
▁orland	-6004
▁remote	-6005
▁expenses	-6006
▁negative	-6007
▁rm	-6008
omon	-6009
▁cogen	-6010
▁hydro	-6011
filesee	-6012
▁hunting	-6013
▁prevent	-6014
lications	-6015
pay	-6016
▁pam	-6017
▁spl	-6018
ulate	-6019
▁built	-6020
▁featur	-6021
▁variety	-6022
▁mitigation	-6023
▁tournament	-6024
▁possibility	-6025
eton	-6026
star	-6027
▁mit	-6028
istic	-6029
▁emery	-6030
▁freedom	-6031
▁parking	-6032
▁seconds	-6033
▁introduction	-6034
cca	-6035
pool	-6036
unci	-6037
▁mine	-6038
▁hearings	-6039
▁transform	-6040
hc	-6041
▁bat	-6042
osing	-6043
▁forg	-6044
▁ring	-6045
roncom	-6046
▁refin	-6047
▁kimber	-6048
▁involve	-6049
▁listing	-6050
▁exercise	-6051
▁firstofthemonth	-6052
▁interconnection	-6053
▁hay	-6054
▁hend	-6055
▁mirant	-6056
▁keystone	-6057
▁statistics	-6058
ae	-6059
dic	-6060
tra	-6061
▁jc	-6062
▁hyatt	-6063
▁ruling	-6064
priority	-6065
▁joining	-6066
▁peoples	-6067
▁signing	-6068
▁produced	-6069
fb	-6070
bie	-6071
▁boe	-6072
▁medical	-6073
▁contacted	-6074
▁instantly	-6075
▁calculated	-6076
how	-6077
▁coo	-6078
▁fox	-6079
▁tab	-6080
berts	-6081
iters	-6082
▁imge	-6083
▁loans	-6084
▁exceed	-6085
▁imagine	-6086
▁viewing	-6087
▁watcher	-6088
▁depending	-6089
▁officials	-6090
▁reviewing	-6091
▁compliment	-6092
▁ml	-6093
poth	-6094
▁toys	-6095
▁chron	-6096
▁achieve	-6097
▁diamond	-6098
▁blackline	-6099
▁concerned	-6100
▁abcnewscom	-6101
▁settlements	-6102
▁expectations	-6103
beck	-6104
iels	-6105
tegr	-6106
▁linux	-6107
▁prints	-6108
▁capitol	-6109
▁resolve	-6110
▁gathering	-6111
▁tm	-6112
▁buff	-6113
▁cars	-6114
▁drin	-6115
▁rein	-6116
▁minor	-6117
▁pilot	-6118
▁adding	-6119
▁dealing	-6120
▁interim	-6121
▁acceptable	-6122
▁flowerscom	-6123
▁nymexcomex	-6124
ram	-6125
rol	-6126
▁race	-6127
▁square	-6128
pet	-6129
ued	-6130
ype	-6131
flag	-6132
high	-6133
neth	-6134
only	-6135
rich	-6136
▁griff	-6137
▁classic	-6138
▁believes	-6139
▁economist	-6140
▁preparation	-6141
▁epsa	-6142
▁yall	-6143
▁dougl	-6144
▁merry	-6145
▁brazil	-6146
▁entitled	-6147
▁subsidiary	-6148
▁implemented	-6149
esus	-6150
▁kid	-6151
▁coff	-6152
▁grape	-6153
▁diction	-6154
▁editors	-6155
urtailment	-6156
acle	-6157
phia	-6158
▁arts	-6159
▁kent	-6160
▁sull	-6161
▁meter	-6162
▁starts	-6163
▁england	-6164
▁pointof	-6165
▁regulation	-6166
▁aa	-6167
▁ld	-6168
▁cft	-6169
▁mwh	-6170
▁alum	-6171
▁jump	-6172
▁arbitr	-6173
▁fields	-6174
▁suisse	-6175
▁affected	-6176
▁featuring	-6177
▁ga	-6178
burg	-6179
mast	-6180
▁fab	-6181
erous	-6182
▁loop	-6183
americ	-6184
▁facts	-6185
▁closer	-6186
▁hurric	-6187
▁matthe	-6188
▁timing	-6189
unciation	-6190
bar	-6191
enues	-6192
▁eook	-6193
▁kept	-6194
▁diane	-6195
mitting	-6196
▁dennis	-6197
▁operated	-6198
▁australia	-6199
duns	-6200
liard	-6201
▁ancs	-6202
▁donna	-6203
▁phoen	-6204
▁postal	-6205
▁circumst	-6206
▁condition	-6207
lis	-6208
pan	-6209
sch	-6210
ario	-6211
iger	-6212
▁pts	-6213
ilder	-6214
ipsco	-6215
▁beck	-6216
expect	-6217
▁rebut	-6218
▁nipsco	-6219
▁saving	-6220
▁citibank	-6221
▁gagliard	-6222
▁harrison	-6223
▁pronunciation	-6224
▁lng	-6225
itary	-6226
▁lath	-6227
▁todd	-6228
▁mostly	-6229
▁dispatch	-6230
▁26	-6231
onym	-6232
elect	-6233
round	-6234
▁push	-6235
▁reun	-6236
▁whose	-6237
▁wilson	-6238
adelphia	-6239
▁credits	-6240
▁elliott	-6241
▁assigned	-6242
▁ultimate	-6243
▁basketball	-6244
opp	-6245
illy	-6246
▁dup	-6247
▁desp	-6248
▁rise	-6249
▁degre	-6250
▁walker	-6251
▁checked	-6252
▁compens	-6253
▁supposed	-6254
▁attaching	-6255
▁aga	-6256
▁cec	-6257
▁hosting	-6258
vere	-6259
▁cast	-6260
▁incent	-6261
▁kenneth	-6262
▁answered	-6263
▁dictionary	-6264
▁mol	-6265
▁brit	-6266
ologies	-6267
▁degrees	-6268
▁maximize	-6269
▁azps	-6270
▁pges	-6271
▁conclus	-6272
▁meaning	-6273
▁generating	-6274
▁successfully	-6275
anch	-6276
▁fortun	-6277
▁temper	-6278
▁focused	-6279
▁examples	-6280
▁properly	-6281
▁preparing	-6282
92	-6283
iro	-6284
▁eh	-6285
outh	-6286
pson	-6287
▁lew	-6288
▁ltd	-6289
▁cind	-6290
▁fans	-6291
▁jesus	-6292
▁buyers	-6293
▁failure	-6294
▁phoenix	-6295
▁schools	-6296
▁kimberly	-6297
▁suppliers	-6298
▁supporting	-6299
▁installation	-6300
iled	-6301
mont	-6302
▁tie	-6303
▁gent	-6304
▁muse	-6305
▁laugh	-6306
ropical	-6307
western	-6308
▁brokers	-6309
▁initiative	-6310
▁inconvenience	-6311
ev	-6312
▁ipo	-6313
▁que	-6314
▁suz	-6315
▁dept	-6316
▁semp	-6317
▁spal	-6318
▁traff	-6319
▁watson	-6320
▁convert	-6321
▁ordered	-6322
▁regions	-6323
▁crosswalk	-6324
▁originally	-6325
▁bb	-6326
▁sex	-6327
▁tag	-6328
▁jean	-6329
▁shir	-6330
related	-6331
▁indian	-6332
▁orlando	-6333
▁treated	-6334
▁improved	-6335
▁invoices	-6336
▁priceline	-6337
▁revolution	-6338
itle	-6339
▁aqu	-6340
▁jew	-6341
▁sans	-6342
▁afric	-6343
▁nicor	-6344
▁compon	-6345
▁subpoena	-6346
▁princeton	-6347
gie	-6348
iet	-6349
aron	-6350
mbol	-6351
▁imb	-6352
▁tth	-6353
▁demarc	-6354
▁intent	-6355
▁warner	-6356
▁serving	-6357
▁traffic	-6358
▁spalding	-6359
▁cult	-6360
▁soci	-6361
▁vent	-6362
▁candy	-6363
▁shock	-6364
▁throw	-6365
▁garden	-6366
▁jersey	-6367
▁plaint	-6368
▁citizens	-6369
▁journals	-6370
▁presence	-6371
▁protocol	-6372
▁reasonable	-6373
▁optimization	-6374
96	-6375
▁cb	-6376
▁nc	-6377
▁xp	-6378
acey	-6379
tees	-6380
ught	-6381
▁smt	-6382
▁audit	-6383
▁china	-6384
▁joined	-6385
▁delayed	-6386
▁describe	-6387
▁expanded	-6388
▁watching	-6389
▁introduce	-6390
▁philadelphia	-6391
je	-6392
tech	-6393
▁heavy	-6394
▁medic	-6395
▁trail	-6396
▁accompl	-6397
▁plaintiff	-6398
▁processes	-6399
▁comparison	-6400
▁effectively	-6401
▁stakeholder	-6402
▁vhs	-6403
▁leth	-6404
▁vary	-6405
▁homes	-6406
▁anonym	-6407
▁defend	-6408
▁fourth	-6409
▁partly	-6410
▁checkout	-6411
▁stakeout	-6412
car	-6413
cos	-6414
iliar	-6415
▁fest	-6416
▁mitch	-6417
▁phase	-6418
▁barney	-6419
▁retained	-6420
▁concurrent	-6421
▁recruiting	-6422
azps	-6423
wart	-6424
▁led	-6425
▁enls	-6426
▁recon	-6427
▁relax	-6428
▁museum	-6429
▁stress	-6430
▁families	-6431
▁presents	-6432
▁diligence	-6433
▁integration	-6434
▁manufacture	-6435
aza	-6436
anco	-6437
▁amb	-6438
▁basics	-6439
▁phillip	-6440
▁agencies	-6441
▁conducted	-6442
▁nets	-6443
ounder	-6444
▁monit	-6445
▁woman	-6446
missions	-6447
▁winners	-6448
▁scholars	-6449
▁champions	-6450
▁efficiency	-6451
▁negotiations	-6452
ads	-6453
kin	-6454
▁bpa	-6455
arton	-6456
ioned	-6457
▁shes	-6458
icholas	-6459
▁pattern	-6460
corpenroncom	-6461
▁abb	-6462
▁dans	-6463
▁feet	-6464
▁docket	-6465
▁insert	-6466
▁mailed	-6467
▁turkey	-6468
▁sectors	-6469
▁creating	-6470
▁dominion	-6471
▁programme	-6472
lot	-6473
▁ns	-6474
aces	-6475
▁cry	-6476
akers	-6477
▁ride	-6478
▁wells	-6479
unkline	-6480
▁coffee	-6481
▁forced	-6482
▁sooner	-6483
▁alberta	-6484
▁fourcorn	-6485
▁constitute	-6486
gia	-6487
sim	-6488
uses	-6489
▁stu	-6490
ipped	-6491
▁cftc	-6492
▁reut	-6493
▁album	-6494
▁celebr	-6495
▁propose	-6496
▁regulations	-6497
▁22	-6498
eler	-6499
late	-6500
▁pra	-6501
heets	-6502
▁chem	-6503
▁chase	-6504
▁extent	-6505
▁computed	-6506
▁quarterly	-6507
law	-6508
▁nar	-6509
▁bull	-6510
▁failed	-6511
erenroncom	-6512
▁tomorrows	-6513
▁traditional	-6514
ppt	-6515
rep	-6516
anta	-6517
▁dth	-6518
▁spa	-6519
▁adult	-6520
▁anton	-6521
▁avert	-6522
uations	-6523
▁flavor	-6524
▁interco	-6525
▁andersen	-6526
▁meantime	-6527
▁upgrades	-6528
▁certified	-6529
▁computing	-6530
▁historical	-6531
▁demarcation	-6532
▁proceedings	-6533
abb	-6534
▁luc	-6535
▁drug	-6536
inding	-6537
▁lawsu	-6538
▁parts	-6539
▁stick	-6540
▁applies	-6541
▁hottest	-6542
▁functional	-6543
▁roundtable	-6544
▁correspondent	-6545
▁informational	-6546
olic	-6547
▁shoot	-6548
▁uncer	-6549
▁salmon	-6550
▁postmast	-6551
▁attendees	-6552
▁increases	-6553
▁prospects	-6554
▁secretarys	-6555
▁forecasting	-6556
▁ay	-6557
▁gon	-6558
rated	-6559
▁fold	-6560
▁song	-6561
▁vous	-6562
▁tk	-6563
icial	-6564
surer	-6565
▁ariz	-6566
▁shot	-6567
▁symp	-6568
▁byron	-6569
▁clark	-6570
▁caused	-6571
▁opened	-6572
▁staying	-6573
▁virginia	-6574
▁generated	-6575
lt	-6576
▁cow	-6577
▁wag	-6578
adium	-6579
▁anne	-6580
▁lane	-6581
▁reve	-6582
▁redeem	-6583
▁despite	-6584
▁protest	-6585
▁labelled	-6586
▁sentence	-6587
▁pipelines	-6588
▁acquisition	-6589
▁consolidated	-6590
zo	-6591
ima	-6592
▁oce	-6593
▁ral	-6594
ielle	-6595
orton	-6596
▁forb	-6597
▁modif	-6598
▁tracy	-6599
▁superv	-6600
▁delight	-6601
▁enhanced	-6602
▁christine	-6603
▁fu	-6604
inch	-6605
▁lsk	-6606
▁ofo	-6607
▁knew	-6608
▁modeling	-6609
▁circumstances	-6610
▁lap	-6611
▁ooam	-6612
earing	-6613
▁delays	-6614
▁revers	-6615
▁arising	-6616
▁merrill	-6617
▁virtually	-6618
▁improvement	-6619
▁complimentary	-6620
alo	-6621
▁zip	-6622
ession	-6623
▁annex	-6624
▁facil	-6625
▁twice	-6626
▁startup	-6627
▁thereto	-6628
▁obtained	-6629
▁comfortable	-6630
▁fx	-6631
eeas	-6632
tery	-6633
▁num	-6634
while	-6635
▁brace	-6636
▁usage	-6637
houston	-6638
▁salomon	-6639
▁confirms	-6640
▁greatest	-6641
▁sullivan	-6642
▁grapevine	-6643
▁implications	-6644
stock	-6645
▁hosp	-6646
▁orle	-6647
▁vill	-6648
iration	-6649
▁oxford	-6650
▁preced	-6651
▁machine	-6652
▁pnpkaps	-6653
▁holdings	-6654
▁alternate	-6655
▁messaging	-6656
▁electrical	-6657
unt	-6658
priv	-6659
▁arm	-6660
▁gpc	-6661
▁anim	-6662
▁eyes	-6663
▁jess	-6664
▁television	-6665
▁capabilities	-6666
▁nm	-6667
▁bio	-6668
▁ete	-6669
▁ren	-6670
▁sty	-6671
eless	-6672
store	-6673
▁lint	-6674
▁clint	-6675
▁paris	-6676
▁treas	-6677
▁rebuttal	-6678
▁surprise	-6679
▁anonymous	-6680
▁dedicated	-6681
▁inventory	-6682
▁cob	-6683
▁grs	-6684
rence	-6685
▁cass	-6686
▁erre	-6687
reddoc	-6688
▁baker	-6689
▁sempra	-6690
▁twanda	-6691
▁dropped	-6692
▁operate	-6693
▁sansser	-6694
▁seasonal	-6695
▁treatment	-6696
▁coordinate	-6697
▁definition	-6698
▁continentalcom	-6699
awn	-6700
ties	-6701
▁ira	-6702
▁autor	-6703
▁cindy	-6704
▁imbal	-6705
▁perio	-6706
▁conclud	-6707
▁orleans	-6708
▁sharing	-6709
▁restaurant	-6710
▁institution	-6711
▁dw	-6712
▁fro	-6713
▁hea	-6714
▁felt	-6715
▁lect	-6716
▁unli	-6717
▁boeing	-6718
▁interd	-6719
▁jeanne	-6720
▁familiar	-6721
▁michigan	-6722
▁tollfree	-6723
▁destinata	-6724
▁diffusion	-6725
bel	-6726
vez	-6727
ante	-6728
▁merci	-6729
▁ranch	-6730
▁covers	-6731
▁resorts	-6732
▁servers	-6733
▁consultants	-6734
▁satisfaction	-6735
pal	-6736
mann	-6737
sured	-6738
▁kase	-6739
ternet	-6740
▁usual	-6741
▁symbol	-6742
▁biotech	-6743
▁updating	-6744
▁sansserif	-6745
▁properties	-6746
86	-6747
rg	-6748
▁aep	-6749
iteur	-6750
▁adequ	-6751
▁cheers	-6752
▁highest	-6753
▁lessons	-6754
▁mailman	-6755
▁newspap	-6756
▁promise	-6757
▁becoming	-6758
▁infobeat	-6759
▁military	-6760
▁difficulty	-6761
▁utilisation	-6762
▁clarification	-6763
ben	-6764
msg	-6765
▁ease	-6766
▁truth	-6767
▁creative	-6768
▁earliest	-6769
▁initiated	-6770
82	-6771
bby	-6772
▁xpm	-6773
arters	-6774
attcom	-6775
profit	-6776
▁basin	-6777
▁unsure	-6778
▁xpmgre	-6779
▁avertir	-6780
▁periods	-6781
▁strongly	-6782
▁partielle	-6783
▁circulation	-6784
▁xpmgrecipient	-6785
fy	-6786
▁iz	-6787
▁mg	-6788
cell	-6789
illed	-6790
▁dark	-6791
▁hedge	-6792
▁kansas	-6793
▁displayed	-6794
▁guarantees	-6795
▁entrepreneurs	-6796
▁bc	-6797
flow	-6798
▁doe	-6799
▁eco	-6800
▁jam	-6801
athan	-6802
iales	-6803
▁aura	-6804
▁advoc	-6805
▁lexped	-6806
▁antonio	-6807
▁subtotal	-6808
▁stephanie	-6809
▁lexpediteur	-6810
▁immediatement	-6811
▁km	-6812
▁lb	-6813
dale	-6814
▁ibm	-6815
kebox	-6816
▁verd	-6817
▁saved	-6818
▁tight	-6819
▁brands	-6820
▁erreur	-6821
▁effects	-6822
▁insights	-6823
▁simulation	-6824
▁confidentiels	-6825
hl	-6826
feb	-6827
isk	-6828
ula	-6829
▁lux	-6830
▁rtos	-6831
▁sean	-6832
▁mcdon	-6833
▁awards	-6834
▁promised	-6835
▁scholarship	-6836
emn	-6837
know	-6838
▁alj	-6839
▁mig	-6840
▁ltth	-6841
▁odds	-6842
▁lands	-6843
builder	-6844
intable	-6845
▁gentle	-6846
▁totale	-6847
▁damages	-6848
▁controll	-6849
▁filiales	-6850
▁additions	-6851
▁acceptance	-6852
▁dor	-6853
▁lhy	-6854
▁nap	-6855
gedbf	-6856
ierra	-6857
ruire	-6858
▁noms	-6859
▁sauf	-6860
▁whos	-6861
ettant	-6862
others	-6863
▁equal	-6864
▁prime	-6865
▁titre	-6866
▁aurait	-6867
▁toutes	-6868
▁jointes	-6869
▁lhypoth	-6870
▁midwest	-6871
▁recevez	-6872
▁conforme	-6873
▁dassurer	-6874
▁expresse	-6875
journalcom	-6876
▁interdite	-6877
▁linternet	-6878
▁outagedbf	-6879
▁lintention	-6880
▁permettant	-6881
▁responsabil	-6882
▁autorisation	-6883
▁destinataires	-6884
elli	-6885
▁hal	-6886
▁devot	-6887
▁appeal	-6888
▁deposits	-6889
imageimage	-6890
blis	-6891
olis	-6892
▁poor	-6893
▁horos	-6894
▁tower	-6895
tegrite	-6896
▁ciapres	-6897
▁etablis	-6898
▁modifie	-6899
▁stewart	-6900
▁detruire	-6901
▁everyday	-6902
▁somewhat	-6903
▁declinent	-6904
▁deposition	-6905
▁lhypothese	-6906
▁lintegrite	-6907
▁responsabilite	-6908
ung	-6909
▁cum	-6910
▁ford	-6911
▁attacks	-6912
▁registr	-6913
▁revenues	-6914
▁rickerts	-6915
▁blackouts	-6916
▁downgraded	-6917
▁consumption	-6918
▁mailmanenroncom	-6919
sav	-6920
graph	-6921
▁cham	-6922
▁loved	-6923
▁minus	-6924
▁memory	-6925
▁concert	-6926
▁constra	-6927
▁telling	-6928
cepattcom	-6929
▁eliminate	-6930
▁traveling	-6931
vent	-6932
▁broo	-6933
▁tired	-6934
▁ancill	-6935
▁arizona	-6936
▁harvard	-6937
▁integrated	-6938
▁christopher	-6939
▁subscribing	-6940
▁counterparty	-6941
▁significantly	-6942
ole	-6943
omb	-6944
zen	-6945
▁29	-6946
▁vo	-6947
▁bei	-6948
▁barry	-6949
▁curve	-6950
▁hyper	-6951
▁solid	-6952
▁filled	-6953
▁academic	-6954
▁references	-6955
mg	-6956
▁dram	-6957
▁film	-6958
makers	-6959
▁guard	-6960
▁rough	-6961
▁waste	-6962
▁adults	-6963
▁played	-6964
itations	-6965
▁aspects	-6966
▁rolling	-6967
▁ancillary	-6968
nor	-6969
▁sv	-6970
isor	-6971
ensus	-6972
rious	-6973
▁icon	-6974
▁rang	-6975
▁lucky	-6976
▁larger	-6977
▁wholly	-6978
▁matthew	-6979
▁replacement	-6980
ek	-6981
vi	-6982
esy	-6983
▁hat	-6984
style	-6985
▁fort	-6986
▁hereto	-6987
▁losses	-6988
▁emerging	-6989
▁referred	-6990
▁listening	-6991
▁responsib	-6992
fp	-6993
ox	-6994
jay	-6995
ray	-6996
▁td	-6997
ales	-6998
enders	-6999
▁marsh	-7000
▁route	-7001
▁analyt	-7002
▁arrival	-7003
▁execute	-7004
▁roberts	-7005
▁sustain	-7006
▁semester	-7007
▁coalition	-7008
▁attractive	-7009
mc	-7010
bon	-7011
pie	-7012
daemon	-7013
▁decor	-7014
▁engage	-7015
▁injury	-7016
▁measures	-7017
▁indicates	-7018
▁practical	-7019
▁experiences	-7020
rit	-7021
html	-7022
▁imm	-7023
taint	-7024
update	-7025
▁terry	-7026
▁andrea	-7027
▁reunion	-7028
▁griffith	-7029
▁surround	-7030
▁influence	-7031
▁sufficient	-7032
▁understood	-7033
iw	-7034
bank	-7035
thur	-7036
▁civ	-7037
icals	-7038
▁calpx	-7039
▁ocean	-7040
▁relay	-7041
▁royal	-7042
▁dynamic	-7043
▁finished	-7044
▁upgraded	-7045
▁cancelled	-7046
▁fan	-7047
copes	-7048
▁dunn	-7049
▁hits	-7050
▁intl	-7051
▁nesa	-7052
▁rlyx	-7053
▁metho	-7054
▁duplic	-7055
▁remind	-7056
▁patrick	-7057
▁somewhere	-7058
▁permanently	-7059
▁descriptions	-7060
qs	-7061
ried	-7062
▁aid	-7063
▁cup	-7064
▁sad	-7065
▁dana	-7066
lation	-7067
lisher	-7068
▁ecard	-7069
▁wines	-7070
▁depend	-7071
▁entering	-7072
▁hospital	-7073
lah	-7074
▁nj	-7075
▁lon	-7076
▁endors	-7077
▁tariffs	-7078
ka	-7079
ban	-7080
oon	-7081
bush	-7082
iber	-7083
▁coh	-7084
▁tee	-7085
▁cuts	-7086
▁tast	-7087
▁faxed	-7088
▁heads	-7089
▁deploy	-7090
▁manual	-7091
▁tables	-7092
▁penalty	-7093
▁ratings	-7094
▁incident	-7095
▁upstream	-7096
▁installed	-7097
▁patterson	-7098
▁blacklined	-7099
▁valentines	-7100
▁electronically	-7101
plain	-7102
▁crit	-7103
▁aaron	-7104
▁bloom	-7105
savings	-7106
▁comics	-7107
▁transp	-7108
▁ashford	-7109
▁textdec	-7110
▁allowing	-7111
▁correction	-7112
▁compensation	-7113
▁sharebuilder	-7114
▁row	-7115
▁ups	-7116
▁csfb	-7117
▁bests	-7118
▁mexic	-7119
▁cozone	-7120
▁unlead	-7121
▁rapidly	-7122
▁society	-7123
▁minister	-7124
▁plaintiffs	-7125
atus	-7126
iano	-7127
ength	-7128
osite	-7129
▁plays	-7130
▁snack	-7131
▁stein	-7132
▁headqu	-7133
▁chamber	-7134
▁charlie	-7135
▁georgia	-7136
▁liquidity	-7137
▁regularly	-7138
ync	-7139
month	-7140
▁emca	-7141
▁vols	-7142
ulated	-7143
▁relied	-7144
▁voicemail	-7145
▁frequently	-7146
▁horoscopes	-7147
▁unsubscrib	-7148
▁restaurants	-7149
▁pp	-7150
▁wp	-7151
using	-7152
▁fulf	-7153
orrect	-7154
▁arena	-7155
▁doubt	-7156
▁fifth	-7157
▁glass	-7158
▁hints	-7159
▁attack	-7160
▁refdoc	-7161
▁reuters	-7162
▁containing	-7163
▁relationships	-7164
▁sin	-7165
▁incl	-7166
▁shor	-7167
▁greek	-7168
▁stacy	-7169
▁surve	-7170
▁intend	-7171
▁sharon	-7172
▁becomes	-7173
▁surchar	-7174
▁graphics	-7175
▁midnight	-7176
▁greenberg	-7177
▁operators	-7178
▁residents	-7179
▁indicating	-7180
▁residential	-7181
site	-7182
▁gil	-7183
▁inn	-7184
riers	-7185
▁rlyz	-7186
▁vend	-7187
istrib	-7188
▁sally	-7189
▁stack	-7190
istical	-7191
▁equival	-7192
▁procure	-7193
▁victoria	-7194
▁happening	-7195
▁hurricane	-7196
▁transwestern	-7197
phy	-7198
▁tc	-7199
▁vl	-7200
▁otc	-7201
igator	-7202
▁proxy	-7203
▁additionally	-7204
ko	-7205
iry	-7206
emat	-7207
this	-7208
▁len	-7209
▁auth	-7210
▁gpcm	-7211
▁divid	-7212
▁battle	-7213
▁facing	-7214
▁forest	-7215
▁picked	-7216
recipient	-7217
▁baseball	-7218
▁clearance	-7219
post	-7220
▁han	-7221
▁hoe	-7222
▁reh	-7223
ducts	-7224
ulous	-7225
▁pump	-7226
athers	-7227
▁seeks	-7228
▁verde	-7229
▁collab	-7230
▁interp	-7231
▁totally	-7232
▁vehicle	-7233
▁publisher	-7234
▁championship	-7235
ims	-7236
ubs	-7237
▁ot	-7238
▁tn	-7239
text	-7240
▁ped	-7241
▁adop	-7242
▁sick	-7243
▁crazy	-7244
▁sells	-7245
▁turns	-7246
address	-7247
▁netting	-7248
mentioned	-7249
▁politics	-7250
▁reflects	-7251
▁introduct	-7252
▁categories	-7253
▁evaluation	-7254
▁innovative	-7255
issa	-7256
▁nyc	-7257
ented	-7258
▁lynn	-7259
commun	-7260
▁inbox	-7261
▁kinney	-7262
▁forecasts	-7263
▁redeliver	-7264
fel	-7265
jan	-7266
▁damage	-7267
▁patrice	-7268
▁courtesy	-7269
▁advertisers	-7270
▁conservation	-7271
ez	-7272
tim	-7273
rece	-7274
▁asp	-7275
▁ohio	-7276
▁yell	-7277
▁flyer	-7278
▁grade	-7279
▁lewis	-7280
▁trips	-7281
▁edward	-7282
▁helped	-7283
▁illino	-7284
▁realju	-7285
▁fastest	-7286
▁reviews	-7287
▁rockets	-7288
▁arranged	-7289
▁bargains	-7290
▁hardware	-7291
▁combination	-7292
rax	-7293
amer	-7294
ears	-7295
gary	-7296
▁bou	-7297
▁gast	-7298
▁mand	-7299
▁jewel	-7300
▁liter	-7301
▁stars	-7302
iveness	-7303
▁parent	-7304
▁brobeck	-7305
▁rigzone	-7306
▁aluminum	-7307
▁platinum	-7308
▁receipts	-7309
ih	-7310
▁enl	-7311
▁sky	-7312
▁chip	-7313
▁salt	-7314
▁hills	-7315
▁vision	-7316
▁argument	-7317
▁importance	-7318
▁modifications	-7319
▁textdecoration	-7320
▁gt	-7321
abet	-7322
wave	-7323
▁nut	-7324
athon	-7325
irmed	-7326
▁runs	-7327
▁shift	-7328
▁summar	-7329
▁equivalent	-7330
▁manufacturing	-7331
icom	-7332
oolo	-7333
▁scr	-7334
▁tree	-7335
active	-7336
athome	-7337
▁roger	-7338
▁monica	-7339
▁rogers	-7340
▁predict	-7341
▁slightly	-7342
▁tropical	-7343
▁responding	-7344
ua	-7345
mess	-7346
leton	-7347
▁fdic	-7348
▁tana	-7349
▁spect	-7350
itative	-7351
▁father	-7352
▁police	-7353
▁andrews	-7354
▁assured	-7355
▁sitting	-7356
▁colleague	-7357
tle	-7358
edit	-7359
just	-7360
last	-7361
utor	-7362
▁jen	-7363
▁sie	-7364
ervice	-7365
ipping	-7366
▁sharp	-7367
▁nytimes	-7368
▁underwr	-7369
va	-7370
▁ah	-7371
coast	-7372
worth	-7373
▁emaz	-7374
unched	-7375
▁travis	-7376
▁contemp	-7377
▁methods	-7378
▁realcom	-7379
▁russell	-7380
▁verdana	-7381
▁marriott	-7382
▁merchand	-7383
▁fercwatch	-7384
▁affiliated	-7385
▁anticipate	-7386
▁improvements	-7387
▁supplemental	-7388
atts	-7389
desk	-7390
sequ	-7391
▁hus	-7392
▁nel	-7393
▁wiz	-7394
▁archive	-7395
▁bradley	-7396
▁filling	-7397
▁netscape	-7398
▁balancing	-7399
▁carefully	-7400
▁monitored	-7401
▁newscasts	-7402
azz	-7403
ras	-7404
▁bt	-7405
▁mv	-7406
▁kah	-7407
▁elite	-7408
▁keeps	-7409
▁prayer	-7410
▁suzanne	-7411
▁compress	-7412
▁consensus	-7413
▁regardless	-7414
▁redeliveries	-7415
awful	-7416
bless	-7417
▁oral	-7418
▁append	-7419
▁device	-7420
▁kensey	-7421
▁kindly	-7422
▁newest	-7423
▁illinois	-7424
▁unlawful	-7425
▁incorrect	-7426
▁dailybless	-7427
▁principles	-7428
▁ea	-7429
arma	-7430
mith	-7431
▁cig	-7432
▁garp	-7433
▁gord	-7434
making	-7435
moneyk	-7436
▁gradu	-7437
▁meets	-7438
▁oklah	-7439
▁disapp	-7440
▁forbes	-7441
▁waiver	-7442
▁everybody	-7443
▁hourahead	-7444
▁organized	-7445
▁dynegydirect	-7446
yer	-7447
aced	-7448
type	-7449
▁iir	-7450
▁kud	-7451
▁nik	-7452
▁erik	-7453
▁hart	-7454
incent	-7455
selves	-7456
▁facsim	-7457
▁thinks	-7458
▁passcode	-7459
▁apologies	-7460
▁expensive	-7461
▁transcript	-7462
▁realjukebox	-7463
▁contributions	-7464
wo	-7465
amo	-7466
ams	-7467
tip	-7468
zip	-7469
lock	-7470
bound	-7471
▁wtib	-7472
▁daren	-7473
▁simon	-7474
▁supre	-7475
▁wayne	-7476
▁controls	-7477
▁wtibrent	-7478
▁furnished	-7479
▁committees	-7480
hus	-7481
pany	-7482
inney	-7483
rices	-7484
▁djia	-7485
▁bonnie	-7486
▁france	-7487
▁minist	-7488
▁shared	-7489
▁chances	-7490
▁cutting	-7491
▁suspend	-7492
▁theater	-7493
▁guidance	-7494
▁alexander	-7495
bet	-7496
rif	-7497
leger	-7498
▁alph	-7499
▁sink	-7500
▁trib	-7501
mailer	-7502
▁newly	-7503
▁plaza	-7504
▁audience	-7505
▁thompson	-7506
▁corrected	-7507
▁specialist	-7508
eas	-7509
▁bs	-7510
▁ads	-7511
▁cyn	-7512
▁dal	-7513
atted	-7514
▁dish	-7515
▁meal	-7516
▁tells	-7517
privacy	-7518
▁backup	-7519
▁fairly	-7520
▁theory	-7521
advertise	-7522
printable	-7523
▁conflict	-7524
▁decrease	-7525
▁delivers	-7526
▁memorial	-7527
▁prospect	-7528
▁databases	-7529
▁cancellation	-7530
gra	-7531
isp	-7532
ercot	-7533
known	-7534
▁mime	-7535
▁intrad	-7536
▁drawing	-7537
▁noticed	-7538
▁terminate	-7539
▁determining	-7540
aud	-7541
eer	-7542
mes	-7543
wtd	-7544
▁ud	-7545
care	-7546
lowo	-7547
▁boss	-7548
▁behav	-7549
▁brows	-7550
elivery	-7551
▁arthur	-7552
▁length	-7553
▁binding	-7554
▁foolish	-7555
▁phleger	-7556
▁matrices	-7557
▁shippers	-7558
▁framework	-7559
▁interpret	-7560
▁recognize	-7561
▁merchandise	-7562
▁quotedprintable	-7563
mat	-7564
▁lam	-7565
esome	-7566
▁grab	-7567
▁pulp	-7568
▁death	-7569
▁leads	-7570
▁aquila	-7571
▁criter	-7572
▁swings	-7573
▁lecture	-7574
▁accommod	-7575
▁intraday	-7576
▁mathemat	-7577
▁bracewell	-7578
▁connected	-7579
▁contacting	-7580
▁crosswalkcom	-7581
▁interruptible	-7582
uh	-7583
fee	-7584
oct	-7585
▁ff	-7586
▁bec	-7587
▁wis	-7588
higho	-7589
uting	-7590
▁chen	-7591
▁hubo	-7592
▁kern	-7593
▁sony	-7594
▁brook	-7595
▁blanco	-7596
▁indexo	-7597
▁bennett	-7598
▁folders	-7599
▁mistake	-7600
▁mothers	-7601
▁permitted	-7602
▁nytimescom	-7603
▁neighborhood	-7604
▁bes	-7605
▁born	-7606
▁neut	-7607
▁waha	-7608
▁ending	-7609
▁explan	-7610
▁onshore	-7611
▁weekends	-7612
▁basically	-7613
▁redistrib	-7614
▁jurisdiction	-7615
▁ze	-7616
▁kap	-7617
▁bass	-7618
▁hans	-7619
▁opec	-7620
▁rush	-7621
eration	-7622
▁attemp	-7623
▁orange	-7624
▁scient	-7625
▁clarify	-7626
▁normally	-7627
▁arbitrage	-7628
▁calculation	-7629
ano	-7630
ofs	-7631
▁cath	-7632
▁hobb	-7633
▁flood	-7634
▁inches	-7635
▁waived	-7636
▁treasury	-7637
▁henderson	-7638
▁sensitive	-7639
▁quantities	-7640
bracepattcom	-7641
66	-7642
edge	-7643
▁parks	-7644
▁plate	-7645
▁oducts	-7646
▁sierra	-7647
▁checkin	-7648
▁dispute	-7649
▁payable	-7650
▁announces	-7651
▁facsimile	-7652
▁shortterm	-7653
▁regulators	-7654
▁correspondence	-7655
eds	-7656
▁gh	-7657
eryl	-7658
allon	-7659
uster	-7660
▁seab	-7661
▁afore	-7662
▁bench	-7663
▁setup	-7664
▁digest	-7665
▁forever	-7666
▁inquiry	-7667
▁identity	-7668
▁accessing	-7669
▁elsewhere	-7670
▁functions	-7671
▁imbalance	-7672
▁recording	-7673
▁assumption	-7674
ouse	-7675
pack	-7676
▁cpt	-7677
▁mtg	-7678
eries	-7679
sters	-7680
▁chad	-7681
▁sach	-7682
▁brooks	-7683
▁pickup	-7684
▁overnight	-7685
▁procurement	-7686
▁temporarily	-7687
vl	-7688
gle	-7689
urb	-7690
vcf	-7691
▁qa	-7692
▁dim	-7693
▁clay	-7694
▁fear	-7695
▁mart	-7696
▁embed	-7697
▁truck	-7698
▁nepool	-7699
▁fitness	-7700
subscribe	-7701
▁attended	-7702
▁launched	-7703
▁reaction	-7704
▁assignments	-7705
▁educational	-7706
▁functionality	-7707
▁aforementioned	-7708
iti	-7709
▁ax	-7710
host	-7711
▁cub	-7712
▁ker	-7713
▁lod	-7714
▁nok	-7715
▁sail	-7716
overed	-7717
regard	-7718
▁argent	-7719
▁disney	-7720
▁inspir	-7721
▁mailin	-7722
▁breaker	-7723
▁goldman	-7724
▁consumed	-7725
▁standing	-7726
▁megawatts	-7727
▁ownership	-7728
▁guidelines	-7729
▁personally	-7730
iers	-7731
keys	-7732
miss	-7733
▁cos	-7734
▁dia	-7735
▁ion	-7736
avail	-7737
ifies	-7738
advice	-7739
▁blood	-7740
▁stron	-7741
▁upper	-7742
entions	-7743
▁hotwire	-7744
▁broadway	-7745
▁spotlight	-7746
▁cn	-7747
▁pt	-7748
anny	-7749
lest	-7750
iture	-7751
▁cock	-7752
▁agents	-7753
▁doctor	-7754
▁resend	-7755
▁keynote	-7756
▁supreme	-7757
▁oklahoma	-7758
▁nahoumsms	-7759
▁whollyowned	-7760
▁midcontinent	-7761
rd	-7762
acc	-7763
espa	-7764
prov	-7765
▁oii	-7766
▁aver	-7767
▁trig	-7768
garret	-7769
▁holly	-7770
▁nokia	-7771
▁older	-7772
▁scoop	-7773
▁finger	-7774
▁severe	-7775
▁teleph	-7776
▁element	-7777
▁lawsuit	-7778
household	-7779
▁carolina	-7780
▁drafting	-7781
▁majority	-7782
▁admission	-7783
▁expressly	-7784
▁homecoming	-7785
▁tb	-7786
▁wi	-7787
▁zd	-7788
▁ens	-7789
enson	-7790
ordan	-7791
remin	-7792
▁hows	-7793
▁mall	-7794
▁gbush	-7795
▁ralph	-7796
▁resist	-7797
▁writer	-7798
▁anthrax	-7799
▁awesome	-7800
▁managed	-7801
▁melissa	-7802
▁nightly	-7803
▁telecom	-7804
▁printing	-7805
▁whenever	-7806
▁clickathome	-7807
▁programming	-7808
acom	-7809
aler	-7810
▁fom	-7811
▁suc	-7812
▁buck	-7813
▁horn	-7814
▁surf	-7815
tainty	-7816
▁consequ	-7817
▁knowing	-7818
▁jonathan	-7819
▁expertise	-7820
▁suggestion	-7821
notification	-7822
ntx	-7823
▁ht	-7824
hand	-7825
unds	-7826
▁cfa	-7827
▁eol	-7828
▁mos	-7829
▁urls	-7830
indust	-7831
please	-7832
▁schem	-7833
▁gordon	-7834
▁parkway	-7835
▁victory	-7836
▁helpdesk	-7837
▁accompany	-7838
▁favorites	-7839
▁foolwatch	-7840
▁schedulers	-7841
gi	-7842
buy	-7843
par	-7844
▁ew	-7845
▁nsm	-7846
▁vel	-7847
arcad	-7848
ouind	-7849
▁eoam	-7850
apolis	-7851
person	-7852
▁ended	-7853
▁signs	-7854
▁steel	-7855
▁fiscal	-7856
▁priced	-7857
▁stabil	-7858
communic	-7859
▁himself	-7860
▁margins	-7861
▁atlantic	-7862
▁embedded	-7863
▁resulting	-7864
▁marketwatch	-7865
ml	-7866
via	-7867
▁lv	-7868
oren	-7869
▁agl	-7870
▁dot	-7871
▁scot	-7872
▁strad	-7873
▁sunny	-7874
▁witho	-7875
message	-7876
▁earned	-7877
▁indemn	-7878
▁artists	-7879
▁mercant	-7880
▁compared	-7881
▁tentative	-7882
▁accomplish	-7883
▁smartremin	-7884
ja	-7885
▁lor	-7886
raham	-7887
▁boys	-7888
▁juno	-7889
▁opal	-7890
▁cloth	-7891
▁verse	-7892
▁illust	-7893
▁strike	-7894
▁airways	-7895
▁comfort	-7896
▁hobbies	-7897
▁permits	-7898
▁gentlemen	-7899
▁governing	-7900
▁newspaper	-7901
▁expiration	-7902
▁prospective	-7903
▁smartreminders	-7904
arm	-7905
ike	-7906
▁np	-7907
ofol	-7908
uces	-7909
▁oma	-7910
▁mist	-7911
▁reas	-7912
sement	-7913
▁height	-7914
▁hilton	-7915
▁onpeak	-7916
▁output	-7917
▁calgary	-7918
▁recipes	-7919
▁formatted	-7920
▁mercantile	-7921
▁introductory	-7922
rek	-7923
▁arn	-7924
lying	-7925
▁kean	-7926
▁ther	-7927
▁annot	-7928
▁optin	-7929
▁pitts	-7930
▁votes	-7931
▁german	-7932
▁leaves	-7933
▁onetime	-7934
▁sailing	-7935
▁homeimage	-7936
▁searching	-7937
▁witnesses	-7938
▁opposition	-7939
▁initiatives	-7940
▁ans	-7941
▁laure	-7942
▁ofoto	-7943
▁robin	-7944
▁cherry	-7945
▁flying	-7946
▁powers	-7947
▁relate	-7948
archives	-7949
espaofol	-7950
▁evaluate	-7951
▁chronicle	-7952
▁interface	-7953
▁acquisitions	-7954
eny	-7955
▁ru	-7956
dont	-7957
▁	-7958
e	-7959
t	-7960
o	-7961
a	-7962
i	-7963
n	-7964
r	-7965
s	-7966
l	-7967
c	-7968
d	-7969
h	-7970
u	-7971
m	-7972
p	-7973
f	-7974
y	-7975
g	-7976
w	-7977
b	-7978
v	-7979
k	-7980
x	-7981
j	-7982
q	-7983
z	-7984
>	-7985
<	-7986
2	-7987
9	-7988
6	-7989
8	-7990
"	-7991
